{
  "version": "1.0",
  "truncation": null,
  "padding": null,
  "added_tokens": [
    {
      "id": 0,
      "special": true,
      "content": "[PAD]",
      "single_word": false,
      "lstrip": false,
      "rstrip": false,
      "normalized": false
    },
    {
      "id": 1,
      "special": true,
      "content": "[BOS]",
      "single_word": false,
      "lstrip": false,
      "rstrip": false,
      "normalized": false
    },
    {
      "id": 2,
      "special": true,
      "content": "[EOS]",
      "single_word": false,
      "lstrip": false,
      "rstrip": false,
      "normalized": false
    },
    {
      "id": 3,
      "special": true,
      "content": "[UNK]",
      "single_word": false,
      "lstrip": false,
      "rstrip": false,
      "normalized": false
    }
  ],
  "normalizer": null,
  "pre_tokenizer": {
    "type": "Sequence",
    "pretokenizers": [
      {
        "type": "Whitespace"
      },
      {
        "type": "Digits",
        "individual_digits": true
      }
    ]
  },
  "post_processor": null,
  "decoder": {
    "type": "BPEDecoder",
    "suffix": "</w>"
  },
  "model": {
    "type": "BPE",
    "dropout": null,
    "unk_token": "[UNK]",
    "continuing_subword_prefix": null,
    "end_of_word_suffix": "</w>",
    "fuse_unk": false,
    "vocab": {
      "[PAD]": 0,
      "[BOS]": 1,
      "[EOS]": 2,
      "[UNK]": 3,
      "!": 4,
      "\"": 5,
      "'": 6,
      "(": 7,
      ")": 8,
      ",": 9,
      ".": 10,
      "0": 11,
      "1": 12,
      "2": 13,
      "3": 14,
      "4": 15,
      "5": 16,
      "6": 17,
      "7": 18,
      "8": 19,
      "9": 20,
      ":": 21,
      "?": 22,
      "A": 23,
      "B": 24,
      "C": 25,
      "D": 26,
      "E": 27,
      "F": 28,
      "G": 29,
      "H": 30,
      "I": 31,
      "J": 32,
      "K": 33,
      "L": 34,
      "M": 35,
      "N": 36,
      "O": 37,
      "P": 38,
      "Q": 39,
      "R": 40,
      "S": 41,
      "T": 42,
      "U": 43,
      "V": 44,
      "W": 45,
      "X": 46,
      "Y": 47,
      "Z": 48,
      "a": 49,
      "b": 50,
      "c": 51,
      "d": 52,
      "e": 53,
      "f": 54,
      "g": 55,
      "h": 56,
      "i": 57,
      "j": 58,
      "k": 59,
      "l": 60,
      "m": 61,
      "n": 62,
      "o": 63,
      "p": 64,
      "q": 65,
      "r": 66,
      "s": 67,
      "t": 68,
      "u": 69,
      "v": 70,
      "w": 71,
      "x": 72,
      "y": 73,
      "z": 74,
      "。": 75,
      "一": 76,
      "丁": 77,
      "七": 78,
      "万": 79,
      "丈": 80,
      "三": 81,
      "上": 82,
      "下": 83,
      "不": 84,
      "与": 85,
      "丐": 86,
      "丑": 87,
      "专": 88,
      "且": 89,
      "丕": 90,
      "世": 91,
      "丘": 92,
      "丙": 93,
      "业": 94,
      "丛": 95,
      "东": 96,
      "丝": 97,
      "丞": 98,
      "丢": 99,
      "两": 100,
      "严": 101,
      "丧": 102,
      "个": 103,
      "丫": 104,
      "中": 105,
      "丰": 106,
      "串": 107,
      "临": 108,
      "丸": 109,
      "丹": 110,
      "为": 111,
      "主": 112,
      "丽": 113,
      "举": 114,
      "乃": 115,
      "久": 116,
      "么": 117,
      "义": 118,
      "之": 119,
      "乌": 120,
      "乍": 121,
      "乎": 122,
      "乏": 123,
      "乐": 124,
      "乒": 125,
      "乓": 126,
      "乔": 127,
      "乖": 128,
      "乘": 129,
      "乙": 130,
      "九": 131,
      "乞": 132,
      "也": 133,
      "习": 134,
      "乡": 135,
      "书": 136,
      "买": 137,
      "乱": 138,
      "乳": 139,
      "乾": 140,
      "了": 141,
      "予": 142,
      "争": 143,
      "事": 144,
      "二": 145,
      "于": 146,
      "亏": 147,
      "云": 148,
      "互": 149,
      "五": 150,
      "井": 151,
      "亘": 152,
      "亚": 153,
      "些": 154,
      "亡": 155,
      "亢": 156,
      "交": 157,
      "亥": 158,
      "亦": 159,
      "产": 160,
      "亨": 161,
      "亩": 162,
      "享": 163,
      "京": 164,
      "亭": 165,
      "亮": 166,
      "亲": 167,
      "亳": 168,
      "亵": 169,
      "人": 170,
      "亿": 171,
      "什": 172,
      "仁": 173,
      "仃": 174,
      "仄": 175,
      "仅": 176,
      "仆": 177,
      "仇": 178,
      "今": 179,
      "介": 180,
      "仍": 181,
      "从": 182,
      "仑": 183,
      "仓": 184,
      "仔": 185,
      "仕": 186,
      "他": 187,
      "仗": 188,
      "付": 189,
      "仙": 190,
      "仞": 191,
      "仟": 192,
      "代": 193,
      "令": 194,
      "以": 195,
      "仨": 196,
      "仪": 197,
      "们": 198,
      "仰": 199,
      "仲": 200,
      "件": 201,
      "价": 202,
      "任": 203,
      "份": 204,
      "仿": 205,
      "企": 206,
      "伊": 207,
      "伍": 208,
      "伎": 209,
      "伏": 210,
      "伐": 211,
      "休": 212,
      "众": 213,
      "优": 214,
      "伙": 215,
      "会": 216,
      "伞": 217,
      "伟": 218,
      "传": 219,
      "伢": 220,
      "伤": 221,
      "伦": 222,
      "伪": 223,
      "伫": 224,
      "伯": 225,
      "估": 226,
      "伴": 227,
      "伶": 228,
      "伸": 229,
      "伺": 230,
      "似": 231,
      "伽": 232,
      "但": 233,
      "位": 234,
      "低": 235,
      "住": 236,
      "佐": 237,
      "佑": 238,
      "体": 239,
      "何": 240,
      "佗": 241,
      "佘": 242,
      "余": 243,
      "佛": 244,
      "作": 245,
      "佟": 246,
      "你": 247,
      "佣": 248,
      "佩": 249,
      "佬": 250,
      "佯": 251,
      "佰": 252,
      "佳": 253,
      "佼": 254,
      "使": 255,
      "侃": 256,
      "侄": 257,
      "侈": 258,
      "例": 259,
      "侍": 260,
      "侏": 261,
      "侗": 262,
      "供": 263,
      "依": 264,
      "侠": 265,
      "侣": 266,
      "侥": 267,
      "侦": 268,
      "侧": 269,
      "侨": 270,
      "侩": 271,
      "侬": 272,
      "侮": 273,
      "侯": 274,
      "侵": 275,
      "便": 276,
      "促": 277,
      "俄": 278,
      "俊": 279,
      "俏": 280,
      "俐": 281,
      "俑": 282,
      "俗": 283,
      "俘": 284,
      "保": 285,
      "俞": 286,
      "信": 287,
      "俨": 288,
      "俩": 289,
      "俪": 290,
      "俭": 291,
      "修": 292,
      "俯": 293,
      "俱": 294,
      "俸": 295,
      "俺": 296,
      "倍": 297,
      "倒": 298,
      "倔": 299,
      "倘": 300,
      "候": 301,
      "倚": 302,
      "倜": 303,
      "借": 304,
      "倡": 305,
      "倦": 306,
      "倨": 307,
      "倩": 308,
      "倪": 309,
      "倭": 310,
      "债": 311,
      "值": 312,
      "倾": 313,
      "偃": 314,
      "假": 315,
      "偌": 316,
      "偎": 317,
      "偏": 318,
      "偕": 319,
      "做": 320,
      "停": 321,
      "健": 322,
      "偶": 323,
      "偷": 324,
      "偿": 325,
      "傀": 326,
      "傅": 327,
      "傍": 328,
      "傥": 329,
      "储": 330,
      "催": 331,
      "傲": 332,
      "傻": 333,
      "像": 334,
      "僚": 335,
      "僧": 336,
      "僵": 337,
      "僻": 338,
      "儒": 339,
      "儡": 340,
      "儿": 341,
      "兀": 342,
      "允": 343,
      "元": 344,
      "兄": 345,
      "充": 346,
      "兆": 347,
      "先": 348,
      "光": 349,
      "克": 350,
      "免": 351,
      "兑": 352,
      "兔": 353,
      "党": 354,
      "兜": 355,
      "兢": 356,
      "入": 357,
      "全": 358,
      "八": 359,
      "公": 360,
      "六": 361,
      "兮": 362,
      "兰": 363,
      "共": 364,
      "关": 365,
      "兴": 366,
      "兵": 367,
      "其": 368,
      "具": 369,
      "典": 370,
      "兹": 371,
      "养": 372,
      "兼": 373,
      "兽": 374,
      "冀": 375,
      "内": 376,
      "冈": 377,
      "冉": 378,
      "册": 379,
      "再": 380,
      "冒": 381,
      "冕": 382,
      "冗": 383,
      "写": 384,
      "军": 385,
      "农": 386,
      "冠": 387,
      "冢": 388,
      "冤": 389,
      "冥": 390,
      "冬": 391,
      "冯": 392,
      "冰": 393,
      "冲": 394,
      "决": 395,
      "况": 396,
      "冶": 397,
      "冷": 398,
      "冻": 399,
      "冽": 400,
      "净": 401,
      "凄": 402,
      "准": 403,
      "凉": 404,
      "凋": 405,
      "凌": 406,
      "减": 407,
      "凑": 408,
      "凛": 409,
      "凝": 410,
      "几": 411,
      "凡": 412,
      "凤": 413,
      "凭": 414,
      "凯": 415,
      "凰": 416,
      "凳": 417,
      "凶": 418,
      "凸": 419,
      "凹": 420,
      "出": 421,
      "击": 422,
      "函": 423,
      "凿": 424,
      "刀": 425,
      "刁": 426,
      "刃": 427,
      "分": 428,
      "切": 429,
      "刊": 430,
      "刑": 431,
      "划": 432,
      "列": 433,
      "刘": 434,
      "则": 435,
      "刚": 436,
      "创": 437,
      "初": 438,
      "删": 439,
      "判": 440,
      "刨": 441,
      "利": 442,
      "别": 443,
      "刮": 444,
      "到": 445,
      "制": 446,
      "刷": 447,
      "券": 448,
      "刹": 449,
      "刺": 450,
      "刻": 451,
      "刽": 452,
      "剁": 453,
      "剂": 454,
      "剃": 455,
      "削": 456,
      "剌": 457,
      "前": 458,
      "剐": 459,
      "剑": 460,
      "剔": 461,
      "剖": 462,
      "剥": 463,
      "剧": 464,
      "剩": 465,
      "剪": 466,
      "副": 467,
      "割": 468,
      "剽": 469,
      "剿": 470,
      "劈": 471,
      "力": 472,
      "劝": 473,
      "办": 474,
      "功": 475,
      "加": 476,
      "务": 477,
      "劣": 478,
      "动": 479,
      "助": 480,
      "努": 481,
      "劫": 482,
      "励": 483,
      "劲": 484,
      "劳": 485,
      "劵": 486,
      "势": 487,
      "勃": 488,
      "勇": 489,
      "勉": 490,
      "勋": 491,
      "勒": 492,
      "勘": 493,
      "募": 494,
      "勤": 495,
      "勺": 496,
      "勾": 497,
      "勿": 498,
      "匀": 499,
      "包": 500,
      "匆": 501,
      "匈": 502,
      "匍": 503,
      "匐": 504,
      "匕": 505,
      "化": 506,
      "北": 507,
      "匙": 508,
      "匝": 509,
      "匠": 510,
      "匡": 511,
      "匣": 512,
      "匪": 513,
      "匮": 514,
      "匹": 515,
      "区": 516,
      "医": 517,
      "匾": 518,
      "匿": 519,
      "十": 520,
      "千": 521,
      "升": 522,
      "午": 523,
      "卉": 524,
      "半": 525,
      "华": 526,
      "协": 527,
      "卑": 528,
      "卒": 529,
      "卓": 530,
      "单": 531,
      "卖": 532,
      "南": 533,
      "博": 534,
      "卜": 535,
      "卟": 536,
      "占": 537,
      "卡": 538,
      "卢": 539,
      "卤": 540,
      "卦": 541,
      "卧": 542,
      "卫": 543,
      "卯": 544,
      "印": 545,
      "危": 546,
      "即": 547,
      "却": 548,
      "卵": 549,
      "卷": 550,
      "卸": 551,
      "卿": 552,
      "厂": 553,
      "厄": 554,
      "厅": 555,
      "历": 556,
      "厉": 557,
      "压": 558,
      "厌": 559,
      "厕": 560,
      "厘": 561,
      "厚": 562,
      "原": 563,
      "厢": 564,
      "厥": 565,
      "厦": 566,
      "厨": 567,
      "厮": 568,
      "去": 569,
      "县": 570,
      "叁": 571,
      "参": 572,
      "又": 573,
      "叉": 574,
      "及": 575,
      "友": 576,
      "双": 577,
      "反": 578,
      "发": 579,
      "叔": 580,
      "取": 581,
      "受": 582,
      "变": 583,
      "叙": 584,
      "叛": 585,
      "叟": 586,
      "叠": 587,
      "口": 588,
      "古": 589,
      "句": 590,
      "另": 591,
      "叨": 592,
      "叩": 593,
      "只": 594,
      "叫": 595,
      "召": 596,
      "叭": 597,
      "叮": 598,
      "可": 599,
      "台": 600,
      "叱": 601,
      "史": 602,
      "右": 603,
      "叵": 604,
      "叶": 605,
      "号": 606,
      "司": 607,
      "叹": 608,
      "叻": 609,
      "叼": 610,
      "叽": 611,
      "吁": 612,
      "吃": 613,
      "各": 614,
      "吆": 615,
      "合": 616,
      "吉": 617,
      "吊": 618,
      "同": 619,
      "名": 620,
      "后": 621,
      "吏": 622,
      "吐": 623,
      "向": 624,
      "吒": 625,
      "吓": 626,
      "吕": 627,
      "吖": 628,
      "吗": 629,
      "君": 630,
      "吝": 631,
      "吞": 632,
      "吟": 633,
      "吠": 634,
      "否": 635,
      "吧": 636,
      "吨": 637,
      "吩": 638,
      "含": 639,
      "听": 640,
      "吭": 641,
      "启": 642,
      "吱": 643,
      "吴": 644,
      "吵": 645,
      "吸": 646,
      "吹": 647,
      "吻": 648,
      "吼": 649,
      "吾": 650,
      "呀": 651,
      "呃": 652,
      "呆": 653,
      "呈": 654,
      "告": 655,
      "呐": 656,
      "呓": 657,
      "呕": 658,
      "呗": 659,
      "员": 660,
      "呛": 661,
      "呜": 662,
      "呢": 663,
      "呦": 664,
      "周": 665,
      "呯": 666,
      "呱": 667,
      "呲": 668,
      "味": 669,
      "呵": 670,
      "呸": 671,
      "呻": 672,
      "呼": 673,
      "命": 674,
      "咀": 675,
      "咂": 676,
      "咄": 677,
      "咆": 678,
      "咋": 679,
      "和": 680,
      "咎": 681,
      "咏": 682,
      "咐": 683,
      "咒": 684,
      "咔": 685,
      "咕": 686,
      "咖": 687,
      "咙": 688,
      "咚": 689,
      "咛": 690,
      "咣": 691,
      "咤": 692,
      "咦": 693,
      "咧": 694,
      "咨": 695,
      "咩": 696,
      "咪": 697,
      "咫": 698,
      "咬": 699,
      "咯": 700,
      "咱": 701,
      "咳": 702,
      "咸": 703,
      "咻": 704,
      "咽": 705,
      "咿": 706,
      "哀": 707,
      "品": 708,
      "哄": 709,
      "哆": 710,
      "哇": 711,
      "哈": 712,
      "哉": 713,
      "响": 714,
      "哎": 715,
      "哏": 716,
      "哐": 717,
      "哑": 718,
      "哒": 719,
      "哔": 720,
      "哗": 721,
      "哞": 722,
      "哟": 723,
      "哥": 724,
      "哦": 725,
      "哧": 726,
      "哨": 727,
      "哩": 728,
      "哪": 729,
      "哭": 730,
      "哮": 731,
      "哲": 732,
      "哺": 733,
      "哼": 734,
      "哽": 735,
      "唆": 736,
      "唇": 737,
      "唉": 738,
      "唏": 739,
      "唐": 740,
      "唔": 741,
      "唠": 742,
      "唢": 743,
      "唤": 744,
      "唧": 745,
      "唬": 746,
      "售": 747,
      "唯": 748,
      "唰": 749,
      "唱": 750,
      "唷": 751,
      "唾": 752,
      "啃": 753,
      "啄": 754,
      "商": 755,
      "啊": 756,
      "啖": 757,
      "啡": 758,
      "啤": 759,
      "啥": 760,
      "啦": 761,
      "啧": 762,
      "啪": 763,
      "啬": 764,
      "啰": 765,
      "啵": 766,
      "啷": 767,
      "啸": 768,
      "啼": 769,
      "啾": 770,
      "喀": 771,
      "喂": 772,
      "喃": 773,
      "善": 774,
      "喆": 775,
      "喇": 776,
      "喉": 777,
      "喊": 778,
      "喋": 779,
      "喏": 780,
      "喔": 781,
      "喘": 782,
      "喜": 783,
      "喝": 784,
      "喧": 785,
      "喱": 786,
      "喳": 787,
      "喵": 788,
      "喷": 789,
      "喻": 790,
      "喽": 791,
      "嗅": 792,
      "嗐": 793,
      "嗑": 794,
      "嗒": 795,
      "嗓": 796,
      "嗔": 797,
      "嗖": 798,
      "嗙": 799,
      "嗜": 800,
      "嗝": 801,
      "嗞": 802,
      "嗡": 803,
      "嗣": 804,
      "嗤": 805,
      "嗦": 806,
      "嗨": 807,
      "嗬": 808,
      "嗯": 809,
      "嗲": 810,
      "嗷": 811,
      "嗽": 812,
      "嘀": 813,
      "嘈": 814,
      "嘉": 815,
      "嘎": 816,
      "嘘": 817,
      "嘚": 818,
      "嘛": 819,
      "嘞": 820,
      "嘟": 821,
      "嘣": 822,
      "嘤": 823,
      "嘬": 824,
      "嘭": 825,
      "嘱": 826,
      "嘲": 827,
      "嘴": 828,
      "嘶": 829,
      "嘻": 830,
      "嘿": 831,
      "噌": 832,
      "噎": 833,
      "噔": 834,
      "噗": 835,
      "噜": 836,
      "噢": 837,
      "器": 838,
      "噩": 839,
      "噪": 840,
      "噫": 841,
      "噬": 842,
      "噱": 843,
      "噶": 844,
      "噻": 845,
      "噼": 846,
      "嚎": 847,
      "嚏": 848,
      "嚓": 849,
      "嚣": 850,
      "嚯": 851,
      "嚷": 852,
      "嚼": 853,
      "囊": 854,
      "囍": 855,
      "囚": 856,
      "四": 857,
      "回": 858,
      "因": 859,
      "囡": 860,
      "团": 861,
      "囤": 862,
      "囧": 863,
      "园": 864,
      "困": 865,
      "囱": 866,
      "围": 867,
      "固": 868,
      "国": 869,
      "图": 870,
      "圆": 871,
      "圈": 872,
      "土": 873,
      "圣": 874,
      "在": 875,
      "圭": 876,
      "地": 877,
      "圳": 878,
      "场": 879,
      "圾": 880,
      "址": 881,
      "坂": 882,
      "均": 883,
      "坊": 884,
      "坎": 885,
      "坏": 886,
      "坐": 887,
      "坑": 888,
      "块": 889,
      "坚": 890,
      "坛": 891,
      "坝": 892,
      "坞": 893,
      "坟": 894,
      "坠": 895,
      "坡": 896,
      "坤": 897,
      "坦": 898,
      "坨": 899,
      "坩": 900,
      "坪": 901,
      "坯": 902,
      "坷": 903,
      "垂": 904,
      "垃": 905,
      "垄": 906,
      "型": 907,
      "垒": 908,
      "垛": 909,
      "垠": 910,
      "垢": 911,
      "垣": 912,
      "垫": 913,
      "垮": 914,
      "埃": 915,
      "埋": 916,
      "城": 917,
      "埔": 918,
      "埚": 919,
      "域": 920,
      "埠": 921,
      "培": 922,
      "基": 923,
      "堂": 924,
      "堆": 925,
      "堑": 926,
      "堕": 927,
      "堡": 928,
      "堤": 929,
      "堪": 930,
      "堰": 931,
      "堵": 932,
      "塌": 933,
      "塑": 934,
      "塔": 935,
      "塘": 936,
      "塞": 937,
      "填": 938,
      "塾": 939,
      "境": 940,
      "墅": 941,
      "墓": 942,
      "墙": 943,
      "增": 944,
      "墟": 945,
      "墨": 946,
      "墩": 947,
      "壁": 948,
      "壕": 949,
      "壤": 950,
      "士": 951,
      "壮": 952,
      "声": 953,
      "壳": 954,
      "壶": 955,
      "壹": 956,
      "处": 957,
      "备": 958,
      "复": 959,
      "夏": 960,
      "夕": 961,
      "外": 962,
      "夙": 963,
      "多": 964,
      "夜": 965,
      "够": 966,
      "大": 967,
      "天": 968,
      "太": 969,
      "夫": 970,
      "夭": 971,
      "央": 972,
      "夯": 973,
      "失": 974,
      "头": 975,
      "夷": 976,
      "夸": 977,
      "夹": 978,
      "夺": 979,
      "奄": 980,
      "奇": 981,
      "奈": 982,
      "奉": 983,
      "奋": 984,
      "奎": 985,
      "奏": 986,
      "契": 987,
      "奔": 988,
      "奕": 989,
      "奖": 990,
      "套": 991,
      "奘": 992,
      "奚": 993,
      "奠": 994,
      "奢": 995,
      "奥": 996,
      "女": 997,
      "奴": 998,
      "奶": 999,
      "奸": 1000,
      "她": 1001,
      "好": 1002,
      "如": 1003,
      "妃": 1004,
      "妄": 1005,
      "妆": 1006,
      "妇": 1007,
      "妈": 1008,
      "妍": 1009,
      "妒": 1010,
      "妓": 1011,
      "妖": 1012,
      "妙": 1013,
      "妞": 1014,
      "妥": 1015,
      "妨": 1016,
      "妩": 1017,
      "妮": 1018,
      "妲": 1019,
      "妹": 1020,
      "妻": 1021,
      "妾": 1022,
      "姆": 1023,
      "姊": 1024,
      "始": 1025,
      "姐": 1026,
      "姑": 1027,
      "姓": 1028,
      "委": 1029,
      "姗": 1030,
      "姘": 1031,
      "姚": 1032,
      "姜": 1033,
      "姝": 1034,
      "姣": 1035,
      "姥": 1036,
      "姨": 1037,
      "姬": 1038,
      "姻": 1039,
      "姿": 1040,
      "威": 1041,
      "娃": 1042,
      "娄": 1043,
      "娅": 1044,
      "娆": 1045,
      "娇": 1046,
      "娉": 1047,
      "娓": 1048,
      "娘": 1049,
      "娜": 1050,
      "娟": 1051,
      "娣": 1052,
      "娥": 1053,
      "娩": 1054,
      "娱": 1055,
      "娲": 1056,
      "娴": 1057,
      "娶": 1058,
      "娼": 1059,
      "婀": 1060,
      "婆": 1061,
      "婉": 1062,
      "婊": 1063,
      "婕": 1064,
      "婚": 1065,
      "婢": 1066,
      "婧": 1067,
      "婪": 1068,
      "婴": 1069,
      "婵": 1070,
      "婶": 1071,
      "婷": 1072,
      "婿": 1073,
      "媒": 1074,
      "媚": 1075,
      "媛": 1076,
      "媲": 1077,
      "媳": 1078,
      "嫁": 1079,
      "嫂": 1080,
      "嫉": 1081,
      "嫌": 1082,
      "嫔": 1083,
      "嫖": 1084,
      "嫣": 1085,
      "嫦": 1086,
      "嫩": 1087,
      "嬅": 1088,
      "嬉": 1089,
      "嬛": 1090,
      "嬴": 1091,
      "嬷": 1092,
      "孀": 1093,
      "子": 1094,
      "孑": 1095,
      "孔": 1096,
      "孕": 1097,
      "字": 1098,
      "存": 1099,
      "孙": 1100,
      "孚": 1101,
      "孜": 1102,
      "孝": 1103,
      "孟": 1104,
      "孢": 1105,
      "季": 1106,
      "孤": 1107,
      "学": 1108,
      "孩": 1109,
      "孪": 1110,
      "孬": 1111,
      "孰": 1112,
      "孵": 1113,
      "孽": 1114,
      "宁": 1115,
      "它": 1116,
      "宅": 1117,
      "宇": 1118,
      "守": 1119,
      "安": 1120,
      "宋": 1121,
      "完": 1122,
      "宏": 1123,
      "宕": 1124,
      "宗": 1125,
      "官": 1126,
      "宙": 1127,
      "定": 1128,
      "宛": 1129,
      "宜": 1130,
      "宝": 1131,
      "实": 1132,
      "宠": 1133,
      "审": 1134,
      "客": 1135,
      "宣": 1136,
      "室": 1137,
      "宥": 1138,
      "宦": 1139,
      "宪": 1140,
      "宫": 1141,
      "宰": 1142,
      "害": 1143,
      "宴": 1144,
      "宵": 1145,
      "家": 1146,
      "宸": 1147,
      "容": 1148,
      "宽": 1149,
      "宾": 1150,
      "宿": 1151,
      "寂": 1152,
      "寄": 1153,
      "寅": 1154,
      "密": 1155,
      "寇": 1156,
      "富": 1157,
      "寐": 1158,
      "寒": 1159,
      "寓": 1160,
      "寝": 1161,
      "寞": 1162,
      "察": 1163,
      "寡": 1164,
      "寥": 1165,
      "寨": 1166,
      "寮": 1167,
      "寰": 1168,
      "寸": 1169,
      "对": 1170,
      "寺": 1171,
      "寻": 1172,
      "导": 1173,
      "寿": 1174,
      "封": 1175,
      "射": 1176,
      "尅": 1177,
      "将": 1178,
      "尉": 1179,
      "尊": 1180,
      "小": 1181,
      "少": 1182,
      "尔": 1183,
      "尖": 1184,
      "尘": 1185,
      "尚": 1186,
      "尝": 1187,
      "尤": 1188,
      "尧": 1189,
      "尬": 1190,
      "就": 1191,
      "尴": 1192,
      "尸": 1193,
      "尹": 1194,
      "尺": 1195,
      "尼": 1196,
      "尽": 1197,
      "尾": 1198,
      "尿": 1199,
      "局": 1200,
      "屁": 1201,
      "层": 1202,
      "居": 1203,
      "屈": 1204,
      "屉": 1205,
      "届": 1206,
      "屋": 1207,
      "屌": 1208,
      "屎": 1209,
      "屏": 1210,
      "屑": 1211,
      "展": 1212,
      "属": 1213,
      "屠": 1214,
      "屡": 1215,
      "履": 1216,
      "屯": 1217,
      "山": 1218,
      "屹": 1219,
      "屿": 1220,
      "岁": 1221,
      "岂": 1222,
      "岌": 1223,
      "岐": 1224,
      "岑": 1225,
      "岔": 1226,
      "岖": 1227,
      "岗": 1228,
      "岚": 1229,
      "岛": 1230,
      "岩": 1231,
      "岬": 1232,
      "岭": 1233,
      "岱": 1234,
      "岳": 1235,
      "岸": 1236,
      "峙": 1237,
      "峡": 1238,
      "峥": 1239,
      "峨": 1240,
      "峭": 1241,
      "峰": 1242,
      "峻": 1243,
      "崂": 1244,
      "崇": 1245,
      "崎": 1246,
      "崔": 1247,
      "崖": 1248,
      "崛": 1249,
      "崩": 1250,
      "崭": 1251,
      "崴": 1252,
      "崽": 1253,
      "嵋": 1254,
      "嵌": 1255,
      "嵘": 1256,
      "嵩": 1257,
      "巅": 1258,
      "巍": 1259,
      "川": 1260,
      "州": 1261,
      "巡": 1262,
      "巢": 1263,
      "工": 1264,
      "左": 1265,
      "巧": 1266,
      "巨": 1267,
      "巫": 1268,
      "差": 1269,
      "己": 1270,
      "已": 1271,
      "巴": 1272,
      "巷": 1273,
      "巾": 1274,
      "币": 1275,
      "市": 1276,
      "布": 1277,
      "帅": 1278,
      "帆": 1279,
      "师": 1280,
      "希": 1281,
      "帐": 1282,
      "帕": 1283,
      "帖": 1284,
      "帘": 1285,
      "帚": 1286,
      "帛": 1287,
      "帜": 1288,
      "帝": 1289,
      "带": 1290,
      "帧": 1291,
      "席": 1292,
      "帮": 1293,
      "帷": 1294,
      "常": 1295,
      "帼": 1296,
      "帽": 1297,
      "幂": 1298,
      "幄": 1299,
      "幅": 1300,
      "幌": 1301,
      "幕": 1302,
      "幢": 1303,
      "干": 1304,
      "平": 1305,
      "年": 1306,
      "并": 1307,
      "幸": 1308,
      "幺": 1309,
      "幻": 1310,
      "幼": 1311,
      "幽": 1312,
      "广": 1313,
      "庄": 1314,
      "庆": 1315,
      "庇": 1316,
      "床": 1317,
      "序": 1318,
      "庐": 1319,
      "库": 1320,
      "应": 1321,
      "底": 1322,
      "店": 1323,
      "庙": 1324,
      "庚": 1325,
      "府": 1326,
      "庞": 1327,
      "废": 1328,
      "度": 1329,
      "座": 1330,
      "庭": 1331,
      "庵": 1332,
      "庶": 1333,
      "康": 1334,
      "庸": 1335,
      "廉": 1336,
      "廊": 1337,
      "廓": 1338,
      "廖": 1339,
      "延": 1340,
      "廷": 1341,
      "建": 1342,
      "开": 1343,
      "异": 1344,
      "弃": 1345,
      "弄": 1346,
      "弈": 1347,
      "弊": 1348,
      "弋": 1349,
      "式": 1350,
      "弑": 1351,
      "弓": 1352,
      "引": 1353,
      "弗": 1354,
      "弘": 1355,
      "弛": 1356,
      "弟": 1357,
      "张": 1358,
      "弥": 1359,
      "弦": 1360,
      "弧": 1361,
      "弩": 1362,
      "弯": 1363,
      "弱": 1364,
      "弹": 1365,
      "强": 1366,
      "弼": 1367,
      "归": 1368,
      "当": 1369,
      "录": 1370,
      "彗": 1371,
      "彝": 1372,
      "形": 1373,
      "彤": 1374,
      "彦": 1375,
      "彧": 1376,
      "彩": 1377,
      "彪": 1378,
      "彬": 1379,
      "彭": 1380,
      "彰": 1381,
      "影": 1382,
      "彷": 1383,
      "役": 1384,
      "彻": 1385,
      "彼": 1386,
      "往": 1387,
      "征": 1388,
      "径": 1389,
      "待": 1390,
      "很": 1391,
      "徉": 1392,
      "徊": 1393,
      "律": 1394,
      "徐": 1395,
      "徒": 1396,
      "得": 1397,
      "徘": 1398,
      "徙": 1399,
      "徜": 1400,
      "御": 1401,
      "徨": 1402,
      "循": 1403,
      "微": 1404,
      "德": 1405,
      "徽": 1406,
      "心": 1407,
      "必": 1408,
      "忆": 1409,
      "忌": 1410,
      "忍": 1411,
      "忏": 1412,
      "忐": 1413,
      "忑": 1414,
      "忒": 1415,
      "志": 1416,
      "忘": 1417,
      "忙": 1418,
      "忠": 1419,
      "忡": 1420,
      "忧": 1421,
      "快": 1422,
      "念": 1423,
      "忽": 1424,
      "怀": 1425,
      "态": 1426,
      "怂": 1427,
      "怄": 1428,
      "怅": 1429,
      "怎": 1430,
      "怒": 1431,
      "怔": 1432,
      "怕": 1433,
      "怖": 1434,
      "怜": 1435,
      "思": 1436,
      "怠": 1437,
      "怡": 1438,
      "急": 1439,
      "怦": 1440,
      "性": 1441,
      "怨": 1442,
      "怪": 1443,
      "怯": 1444,
      "怵": 1445,
      "总": 1446,
      "怼": 1447,
      "恁": 1448,
      "恃": 1449,
      "恋": 1450,
      "恍": 1451,
      "恐": 1452,
      "恒": 1453,
      "恕": 1454,
      "恙": 1455,
      "恢": 1456,
      "恤": 1457,
      "恨": 1458,
      "恩": 1459,
      "恪": 1460,
      "恬": 1461,
      "恭": 1462,
      "息": 1463,
      "恰": 1464,
      "恳": 1465,
      "恶": 1466,
      "恺": 1467,
      "恻": 1468,
      "恼": 1469,
      "恿": 1470,
      "悄": 1471,
      "悉": 1472,
      "悍": 1473,
      "悔": 1474,
      "悖": 1475,
      "悚": 1476,
      "悟": 1477,
      "悠": 1478,
      "患": 1479,
      "悦": 1480,
      "您": 1481,
      "悬": 1482,
      "悯": 1483,
      "悲": 1484,
      "悴": 1485,
      "悸": 1486,
      "悻": 1487,
      "悼": 1488,
      "情": 1489,
      "惆": 1490,
      "惇": 1491,
      "惊": 1492,
      "惋": 1493,
      "惑": 1494,
      "惕": 1495,
      "惘": 1496,
      "惚": 1497,
      "惜": 1498,
      "惟": 1499,
      "惠": 1500,
      "惦": 1501,
      "惧": 1502,
      "惨": 1503,
      "惩": 1504,
      "惫": 1505,
      "惬": 1506,
      "惭": 1507,
      "惮": 1508,
      "惯": 1509,
      "惰": 1510,
      "想": 1511,
      "惴": 1512,
      "惶": 1513,
      "惹": 1514,
      "惺": 1515,
      "愁": 1516,
      "愈": 1517,
      "愉": 1518,
      "意": 1519,
      "愕": 1520,
      "愚": 1521,
      "感": 1522,
      "愣": 1523,
      "愤": 1524,
      "愧": 1525,
      "愫": 1526,
      "愿": 1527,
      "慈": 1528,
      "慌": 1529,
      "慎": 1530,
      "慑": 1531,
      "慕": 1532,
      "慢": 1533,
      "慧": 1534,
      "慨": 1535,
      "慰": 1536,
      "慵": 1537,
      "慷": 1538,
      "憋": 1539,
      "憎": 1540,
      "憔": 1541,
      "憧": 1542,
      "憨": 1543,
      "憬": 1544,
      "憾": 1545,
      "懂": 1546,
      "懈": 1547,
      "懊": 1548,
      "懒": 1549,
      "懦": 1550,
      "懵": 1551,
      "懿": 1552,
      "戈": 1553,
      "戎": 1554,
      "戏": 1555,
      "成": 1556,
      "我": 1557,
      "戒": 1558,
      "或": 1559,
      "战": 1560,
      "戚": 1561,
      "戛": 1562,
      "戟": 1563,
      "截": 1564,
      "戬": 1565,
      "戮": 1566,
      "戳": 1567,
      "戴": 1568,
      "户": 1569,
      "戾": 1570,
      "房": 1571,
      "所": 1572,
      "扁": 1573,
      "扇": 1574,
      "扈": 1575,
      "扉": 1576,
      "手": 1577,
      "才": 1578,
      "扎": 1579,
      "扑": 1580,
      "扒": 1581,
      "打": 1582,
      "扔": 1583,
      "托": 1584,
      "扛": 1585,
      "扣": 1586,
      "执": 1587,
      "扩": 1588,
      "扪": 1589,
      "扫": 1590,
      "扬": 1591,
      "扭": 1592,
      "扮": 1593,
      "扯": 1594,
      "扰": 1595,
      "扳": 1596,
      "扶": 1597,
      "批": 1598,
      "扼": 1599,
      "找": 1600,
      "承": 1601,
      "技": 1602,
      "抄": 1603,
      "抉": 1604,
      "把": 1605,
      "抑": 1606,
      "抒": 1607,
      "抓": 1608,
      "投": 1609,
      "抖": 1610,
      "抗": 1611,
      "折": 1612,
      "抚": 1613,
      "抛": 1614,
      "抠": 1615,
      "抡": 1616,
      "抢": 1617,
      "护": 1618,
      "报": 1619,
      "抨": 1620,
      "披": 1621,
      "抬": 1622,
      "抱": 1623,
      "抵": 1624,
      "抹": 1625,
      "押": 1626,
      "抽": 1627,
      "抿": 1628,
      "拂": 1629,
      "拄": 1630,
      "担": 1631,
      "拆": 1632,
      "拇": 1633,
      "拈": 1634,
      "拉": 1635,
      "拌": 1636,
      "拍": 1637,
      "拎": 1638,
      "拐": 1639,
      "拒": 1640,
      "拓": 1641,
      "拔": 1642,
      "拖": 1643,
      "拗": 1644,
      "拘": 1645,
      "拙": 1646,
      "招": 1647,
      "拜": 1648,
      "拟": 1649,
      "拢": 1650,
      "拣": 1651,
      "拥": 1652,
      "拦": 1653,
      "拧": 1654,
      "拨": 1655,
      "择": 1656,
      "括": 1657,
      "拭": 1658,
      "拮": 1659,
      "拯": 1660,
      "拱": 1661,
      "拳": 1662,
      "拴": 1663,
      "拷": 1664,
      "拼": 1665,
      "拽": 1666,
      "拾": 1667,
      "拿": 1668,
      "持": 1669,
      "挂": 1670,
      "指": 1671,
      "按": 1672,
      "挎": 1673,
      "挑": 1674,
      "挖": 1675,
      "挚": 1676,
      "挛": 1677,
      "挞": 1678,
      "挟": 1679,
      "挠": 1680,
      "挡": 1681,
      "挣": 1682,
      "挤": 1683,
      "挥": 1684,
      "挨": 1685,
      "挪": 1686,
      "挫": 1687,
      "振": 1688,
      "挺": 1689,
      "挽": 1690,
      "捂": 1691,
      "捅": 1692,
      "捆": 1693,
      "捉": 1694,
      "捋": 1695,
      "捌": 1696,
      "捍": 1697,
      "捎": 1698,
      "捏": 1699,
      "捐": 1700,
      "捕": 1701,
      "捞": 1702,
      "损": 1703,
      "捡": 1704,
      "换": 1705,
      "捣": 1706,
      "捧": 1707,
      "据": 1708,
      "捯": 1709,
      "捶": 1710,
      "捷": 1711,
      "捺": 1712,
      "捻": 1713,
      "掀": 1714,
      "掂": 1715,
      "掇": 1716,
      "授": 1717,
      "掉": 1718,
      "掌": 1719,
      "掏": 1720,
      "掐": 1721,
      "排": 1722,
      "掖": 1723,
      "掘": 1724,
      "掠": 1725,
      "探": 1726,
      "接": 1727,
      "控": 1728,
      "推": 1729,
      "掩": 1730,
      "措": 1731,
      "掰": 1732,
      "掳": 1733,
      "掷": 1734,
      "掸": 1735,
      "掺": 1736,
      "揉": 1737,
      "揍": 1738,
      "描": 1739,
      "提": 1740,
      "插": 1741,
      "揖": 1742,
      "握": 1743,
      "揣": 1744,
      "揪": 1745,
      "揭": 1746,
      "援": 1747,
      "揽": 1748,
      "搀": 1749,
      "搁": 1750,
      "搂": 1751,
      "搅": 1752,
      "搏": 1753,
      "搐": 1754,
      "搓": 1755,
      "搔": 1756,
      "搜": 1757,
      "搞": 1758,
      "搪": 1759,
      "搬": 1760,
      "搭": 1761,
      "携": 1762,
      "搽": 1763,
      "摁": 1764,
      "摄": 1765,
      "摆": 1766,
      "摇": 1767,
      "摊": 1768,
      "摒": 1769,
      "摔": 1770,
      "摘": 1771,
      "摧": 1772,
      "摩": 1773,
      "摸": 1774,
      "摹": 1775,
      "撂": 1776,
      "撅": 1777,
      "撇": 1778,
      "撑": 1779,
      "撒": 1780,
      "撕": 1781,
      "撞": 1782,
      "撤": 1783,
      "撩": 1784,
      "撬": 1785,
      "播": 1786,
      "撮": 1787,
      "撰": 1788,
      "撵": 1789,
      "撸": 1790,
      "撼": 1791,
      "擀": 1792,
      "擂": 1793,
      "擅": 1794,
      "操": 1795,
      "擎": 1796,
      "擒": 1797,
      "擘": 1798,
      "擞": 1799,
      "擦": 1800,
      "攀": 1801,
      "攒": 1802,
      "攥": 1803,
      "支": 1804,
      "收": 1805,
      "攸": 1806,
      "改": 1807,
      "攻": 1808,
      "放": 1809,
      "政": 1810,
      "故": 1811,
      "效": 1812,
      "敌": 1813,
      "敏": 1814,
      "救": 1815,
      "敖": 1816,
      "教": 1817,
      "敛": 1818,
      "敞": 1819,
      "敢": 1820,
      "散": 1821,
      "敦": 1822,
      "敬": 1823,
      "数": 1824,
      "敲": 1825,
      "整": 1826,
      "敷": 1827,
      "文": 1828,
      "斋": 1829,
      "斌": 1830,
      "斐": 1831,
      "斑": 1832,
      "斓": 1833,
      "斗": 1834,
      "料": 1835,
      "斜": 1836,
      "斟": 1837,
      "斤": 1838,
      "斥": 1839,
      "斧": 1840,
      "斩": 1841,
      "断": 1842,
      "斯": 1843,
      "新": 1844,
      "方": 1845,
      "施": 1846,
      "旁": 1847,
      "旅": 1848,
      "旋": 1849,
      "族": 1850,
      "旗": 1851,
      "无": 1852,
      "既": 1853,
      "日": 1854,
      "旦": 1855,
      "旧": 1856,
      "旨": 1857,
      "早": 1858,
      "旬": 1859,
      "旭": 1860,
      "旮": 1861,
      "旯": 1862,
      "旱": 1863,
      "时": 1864,
      "旷": 1865,
      "旺": 1866,
      "昂": 1867,
      "昆": 1868,
      "昊": 1869,
      "昌": 1870,
      "明": 1871,
      "昏": 1872,
      "易": 1873,
      "昔": 1874,
      "昕": 1875,
      "昙": 1876,
      "星": 1877,
      "映": 1878,
      "春": 1879,
      "昧": 1880,
      "昨": 1881,
      "昭": 1882,
      "是": 1883,
      "昵": 1884,
      "昼": 1885,
      "显": 1886,
      "晃": 1887,
      "晋": 1888,
      "晌": 1889,
      "晏": 1890,
      "晒": 1891,
      "晓": 1892,
      "晕": 1893,
      "晖": 1894,
      "晗": 1895,
      "晚": 1896,
      "晦": 1897,
      "晨": 1898,
      "普": 1899,
      "景": 1900,
      "晰": 1901,
      "晴": 1902,
      "晶": 1903,
      "智": 1904,
      "晾": 1905,
      "暂": 1906,
      "暄": 1907,
      "暇": 1908,
      "暑": 1909,
      "暖": 1910,
      "暗": 1911,
      "暧": 1912,
      "暨": 1913,
      "暮": 1914,
      "暴": 1915,
      "暹": 1916,
      "曙": 1917,
      "曜": 1918,
      "曝": 1919,
      "曦": 1920,
      "曰": 1921,
      "曲": 1922,
      "曳": 1923,
      "更": 1924,
      "曹": 1925,
      "曼": 1926,
      "曾": 1927,
      "替": 1928,
      "最": 1929,
      "月": 1930,
      "有": 1931,
      "朋": 1932,
      "服": 1933,
      "朔": 1934,
      "朕": 1935,
      "朗": 1936,
      "望": 1937,
      "朝": 1938,
      "期": 1939,
      "朦": 1940,
      "木": 1941,
      "未": 1942,
      "末": 1943,
      "本": 1944,
      "札": 1945,
      "术": 1946,
      "朱": 1947,
      "朴": 1948,
      "朵": 1949,
      "机": 1950,
      "朽": 1951,
      "杀": 1952,
      "杂": 1953,
      "权": 1954,
      "杆": 1955,
      "杈": 1956,
      "杉": 1957,
      "李": 1958,
      "杏": 1959,
      "材": 1960,
      "村": 1961,
      "杖": 1962,
      "杜": 1963,
      "杞": 1964,
      "束": 1965,
      "杠": 1966,
      "条": 1967,
      "来": 1968,
      "杨": 1969,
      "杭": 1970,
      "杯": 1971,
      "杰": 1972,
      "杵": 1973,
      "杷": 1974,
      "松": 1975,
      "板": 1976,
      "极": 1977,
      "构": 1978,
      "枇": 1979,
      "枉": 1980,
      "析": 1981,
      "枕": 1982,
      "林": 1983,
      "枚": 1984,
      "果": 1985,
      "枝": 1986,
      "枢": 1987,
      "枣": 1988,
      "枪": 1989,
      "枫": 1990,
      "枭": 1991,
      "枯": 1992,
      "架": 1993,
      "枷": 1994,
      "枸": 1995,
      "柄": 1996,
      "柏": 1997,
      "某": 1998,
      "柑": 1999,
      "柒": 2000,
      "染": 2001,
      "柔": 2002,
      "柚": 2003,
      "柜": 2004,
      "柠": 2005,
      "查": 2006,
      "柬": 2007,
      "柯": 2008,
      "柰": 2009,
      "柱": 2010,
      "柳": 2011,
      "柴": 2012,
      "柿": 2013,
      "栀": 2014,
      "栅": 2015,
      "标": 2016,
      "栈": 2017,
      "栉": 2018,
      "栋": 2019,
      "栏": 2020,
      "树": 2021,
      "栓": 2022,
      "栖": 2023,
      "栗": 2024,
      "校": 2025,
      "栩": 2026,
      "株": 2027,
      "样": 2028,
      "核": 2029,
      "根": 2030,
      "格": 2031,
      "栽": 2032,
      "栾": 2033,
      "桀": 2034,
      "桂": 2035,
      "桃": 2036,
      "框": 2037,
      "案": 2038,
      "桌": 2039,
      "桐": 2040,
      "桑": 2041,
      "桓": 2042,
      "桔": 2043,
      "档": 2044,
      "桥": 2045,
      "桦": 2046,
      "桨": 2047,
      "桩": 2048,
      "桶": 2049,
      "梁": 2050,
      "梅": 2051,
      "梆": 2052,
      "梓": 2053,
      "梗": 2054,
      "梢": 2055,
      "梦": 2056,
      "梧": 2057,
      "梨": 2058,
      "梭": 2059,
      "梯": 2060,
      "械": 2061,
      "梳": 2062,
      "梵": 2063,
      "检": 2064,
      "棉": 2065,
      "棋": 2066,
      "棍": 2067,
      "棒": 2068,
      "棕": 2069,
      "棘": 2070,
      "棚": 2071,
      "棠": 2072,
      "棣": 2073,
      "森": 2074,
      "棱": 2075,
      "棵": 2076,
      "棺": 2077,
      "椅": 2078,
      "植": 2079,
      "椎": 2080,
      "椒": 2081,
      "椭": 2082,
      "椰": 2083,
      "楂": 2084,
      "楚": 2085,
      "楞": 2086,
      "楠": 2087,
      "楷": 2088,
      "楼": 2089,
      "概": 2090,
      "榄": 2091,
      "榆": 2092,
      "榔": 2093,
      "榕": 2094,
      "榜": 2095,
      "榨": 2096,
      "榭": 2097,
      "榴": 2098,
      "榷": 2099,
      "榻": 2100,
      "槃": 2101,
      "槌": 2102,
      "槐": 2103,
      "槛": 2104,
      "槟": 2105,
      "槽": 2106,
      "槿": 2107,
      "樊": 2108,
      "樟": 2109,
      "模": 2110,
      "横": 2111,
      "樱": 2112,
      "樵": 2113,
      "樽": 2114,
      "橄": 2115,
      "橇": 2116,
      "橘": 2117,
      "橙": 2118,
      "橡": 2119,
      "橱": 2120,
      "檀": 2121,
      "檐": 2122,
      "檬": 2123,
      "欠": 2124,
      "次": 2125,
      "欢": 2126,
      "欣": 2127,
      "欧": 2128,
      "欲": 2129,
      "欸": 2130,
      "欺": 2131,
      "欻": 2132,
      "款": 2133,
      "歆": 2134,
      "歇": 2135,
      "歉": 2136,
      "歌": 2137,
      "止": 2138,
      "正": 2139,
      "此": 2140,
      "步": 2141,
      "武": 2142,
      "歧": 2143,
      "歪": 2144,
      "歹": 2145,
      "死": 2146,
      "歼": 2147,
      "殃": 2148,
      "殆": 2149,
      "殇": 2150,
      "殉": 2151,
      "殊": 2152,
      "残": 2153,
      "殒": 2154,
      "殓": 2155,
      "殖": 2156,
      "殡": 2157,
      "殴": 2158,
      "段": 2159,
      "殷": 2160,
      "殿": 2161,
      "毁": 2162,
      "毅": 2163,
      "毋": 2164,
      "母": 2165,
      "每": 2166,
      "毒": 2167,
      "比": 2168,
      "毕": 2169,
      "毙": 2170,
      "毛": 2171,
      "毡": 2172,
      "毫": 2173,
      "毯": 2174,
      "毽": 2175,
      "氏": 2176,
      "民": 2177,
      "氓": 2178,
      "气": 2179,
      "氛": 2180,
      "氢": 2181,
      "氧": 2182,
      "氨": 2183,
      "氪": 2184,
      "氮": 2185,
      "氯": 2186,
      "氲": 2187,
      "水": 2188,
      "永": 2189,
      "汀": 2190,
      "汁": 2191,
      "求": 2192,
      "汇": 2193,
      "汉": 2194,
      "汐": 2195,
      "汕": 2196,
      "汗": 2197,
      "汛": 2198,
      "汝": 2199,
      "江": 2200,
      "池": 2201,
      "污": 2202,
      "汤": 2203,
      "汪": 2204,
      "汰": 2205,
      "汲": 2206,
      "汹": 2207,
      "汽": 2208,
      "汾": 2209,
      "沁": 2210,
      "沂": 2211,
      "沃": 2212,
      "沈": 2213,
      "沉": 2214,
      "沌": 2215,
      "沏": 2216,
      "沐": 2217,
      "沓": 2218,
      "沙": 2219,
      "沛": 2220,
      "沟": 2221,
      "没": 2222,
      "沤": 2223,
      "沥": 2224,
      "沦": 2225,
      "沧": 2226,
      "沪": 2227,
      "沫": 2228,
      "沭": 2229,
      "沮": 2230,
      "沱": 2231,
      "河": 2232,
      "沸": 2233,
      "油": 2234,
      "治": 2235,
      "沼": 2236,
      "沽": 2237,
      "沾": 2238,
      "沿": 2239,
      "泄": 2240,
      "泉": 2241,
      "泊": 2242,
      "泌": 2243,
      "泓": 2244,
      "法": 2245,
      "泗": 2246,
      "泛": 2247,
      "泞": 2248,
      "泡": 2249,
      "波": 2250,
      "泣": 2251,
      "泥": 2252,
      "注": 2253,
      "泪": 2254,
      "泫": 2255,
      "泯": 2256,
      "泰": 2257,
      "泱": 2258,
      "泳": 2259,
      "泵": 2260,
      "泷": 2261,
      "泸": 2262,
      "泻": 2263,
      "泼": 2264,
      "泽": 2265,
      "泾": 2266,
      "洁": 2267,
      "洋": 2268,
      "洒": 2269,
      "洗": 2270,
      "洛": 2271,
      "洞": 2272,
      "津": 2273,
      "洪": 2274,
      "洱": 2275,
      "洲": 2276,
      "活": 2277,
      "洼": 2278,
      "洽": 2279,
      "派": 2280,
      "流": 2281,
      "浅": 2282,
      "浆": 2283,
      "浇": 2284,
      "浊": 2285,
      "测": 2286,
      "济": 2287,
      "浏": 2288,
      "浑": 2289,
      "浒": 2290,
      "浓": 2291,
      "浔": 2292,
      "浙": 2293,
      "浣": 2294,
      "浦": 2295,
      "浩": 2296,
      "浪": 2297,
      "浮": 2298,
      "浴": 2299,
      "海": 2300,
      "浸": 2301,
      "涂": 2302,
      "涅": 2303,
      "消": 2304,
      "涉": 2305,
      "涌": 2306,
      "涎": 2307,
      "涓": 2308,
      "涕": 2309,
      "涛": 2310,
      "涝": 2311,
      "涟": 2312,
      "涡": 2313,
      "涣": 2314,
      "涤": 2315,
      "润": 2316,
      "涧": 2317,
      "涨": 2318,
      "涩": 2319,
      "涮": 2320,
      "涯": 2321,
      "液": 2322,
      "涵": 2323,
      "淀": 2324,
      "淄": 2325,
      "淅": 2326,
      "淆": 2327,
      "淇": 2328,
      "淋": 2329,
      "淌": 2330,
      "淑": 2331,
      "淘": 2332,
      "淡": 2333,
      "淤": 2334,
      "淦": 2335,
      "淫": 2336,
      "淬": 2337,
      "淮": 2338,
      "深": 2339,
      "淳": 2340,
      "混": 2341,
      "淹": 2342,
      "添": 2343,
      "淼": 2344,
      "清": 2345,
      "渊": 2346,
      "渍": 2347,
      "渎": 2348,
      "渐": 2349,
      "渔": 2350,
      "渗": 2351,
      "渝": 2352,
      "渠": 2353,
      "渡": 2354,
      "渣": 2355,
      "渤": 2356,
      "温": 2357,
      "渭": 2358,
      "港": 2359,
      "渲": 2360,
      "渴": 2361,
      "游": 2362,
      "渺": 2363,
      "湃": 2364,
      "湍": 2365,
      "湖": 2366,
      "湘": 2367,
      "湛": 2368,
      "湮": 2369,
      "湾": 2370,
      "湿": 2371,
      "溃": 2372,
      "溅": 2373,
      "溉": 2374,
      "溏": 2375,
      "源": 2376,
      "溜": 2377,
      "溢": 2378,
      "溥": 2379,
      "溧": 2380,
      "溪": 2381,
      "溯": 2382,
      "溶": 2383,
      "溺": 2384,
      "滁": 2385,
      "滂": 2386,
      "滋": 2387,
      "滑": 2388,
      "滔": 2389,
      "滕": 2390,
      "滚": 2391,
      "滞": 2392,
      "满": 2393,
      "滤": 2394,
      "滥": 2395,
      "滨": 2396,
      "滩": 2397,
      "滴": 2398,
      "漂": 2399,
      "漆": 2400,
      "漏": 2401,
      "漓": 2402,
      "演": 2403,
      "漠": 2404,
      "漩": 2405,
      "漪": 2406,
      "漫": 2407,
      "漱": 2408,
      "漳": 2409,
      "漾": 2410,
      "潇": 2411,
      "潍": 2412,
      "潘": 2413,
      "潜": 2414,
      "潢": 2415,
      "潦": 2416,
      "潭": 2417,
      "潮": 2418,
      "潺": 2419,
      "潼": 2420,
      "澄": 2421,
      "澈": 2422,
      "澎": 2423,
      "澜": 2424,
      "澡": 2425,
      "澳": 2426,
      "激": 2427,
      "濑": 2428,
      "濒": 2429,
      "瀑": 2430,
      "瀚": 2431,
      "灌": 2432,
      "火": 2433,
      "灭": 2434,
      "灯": 2435,
      "灰": 2436,
      "灵": 2437,
      "灶": 2438,
      "灸": 2439,
      "灼": 2440,
      "灾": 2441,
      "灿": 2442,
      "炅": 2443,
      "炉": 2444,
      "炊": 2445,
      "炎": 2446,
      "炒": 2447,
      "炕": 2448,
      "炖": 2449,
      "炙": 2450,
      "炜": 2451,
      "炫": 2452,
      "炬": 2453,
      "炭": 2454,
      "炮": 2455,
      "炯": 2456,
      "炳": 2457,
      "炷": 2458,
      "炸": 2459,
      "点": 2460,
      "炼": 2461,
      "炽": 2462,
      "烁": 2463,
      "烂": 2464,
      "烈": 2465,
      "烊": 2466,
      "烘": 2467,
      "烙": 2468,
      "烛": 2469,
      "烟": 2470,
      "烤": 2471,
      "烦": 2472,
      "烧": 2473,
      "烨": 2474,
      "烩": 2475,
      "烫": 2476,
      "烬": 2477,
      "热": 2478,
      "烷": 2479,
      "烹": 2480,
      "烽": 2481,
      "焉": 2482,
      "焊": 2483,
      "焕": 2484,
      "焖": 2485,
      "焗": 2486,
      "焙": 2487,
      "焚": 2488,
      "焦": 2489,
      "焯": 2490,
      "焰": 2491,
      "焱": 2492,
      "然": 2493,
      "煊": 2494,
      "煌": 2495,
      "煎": 2496,
      "煜": 2497,
      "煞": 2498,
      "煤": 2499,
      "煦": 2500,
      "照": 2501,
      "煮": 2502,
      "煲": 2503,
      "煸": 2504,
      "煽": 2505,
      "熄": 2506,
      "熊": 2507,
      "熏": 2508,
      "熔": 2509,
      "熙": 2510,
      "熟": 2511,
      "熠": 2512,
      "熨": 2513,
      "熬": 2514,
      "熹": 2515,
      "燃": 2516,
      "燎": 2517,
      "燕": 2518,
      "燥": 2519,
      "爆": 2520,
      "爪": 2521,
      "爬": 2522,
      "爱": 2523,
      "爵": 2524,
      "父": 2525,
      "爷": 2526,
      "爸": 2527,
      "爹": 2528,
      "爽": 2529,
      "片": 2530,
      "版": 2531,
      "牌": 2532,
      "牒": 2533,
      "牙": 2534,
      "牛": 2535,
      "牟": 2536,
      "牡": 2537,
      "牢": 2538,
      "牦": 2539,
      "牧": 2540,
      "物": 2541,
      "牲": 2542,
      "牵": 2543,
      "特": 2544,
      "牺": 2545,
      "犀": 2546,
      "犁": 2547,
      "犄": 2548,
      "犊": 2549,
      "犒": 2550,
      "犟": 2551,
      "犬": 2552,
      "犯": 2553,
      "状": 2554,
      "犷": 2555,
      "犸": 2556,
      "犹": 2557,
      "狂": 2558,
      "狄": 2559,
      "狈": 2560,
      "狍": 2561,
      "狐": 2562,
      "狒": 2563,
      "狗": 2564,
      "狙": 2565,
      "狞": 2566,
      "狠": 2567,
      "狡": 2568,
      "狩": 2569,
      "独": 2570,
      "狭": 2571,
      "狮": 2572,
      "狰": 2573,
      "狱": 2574,
      "狲": 2575,
      "狸": 2576,
      "狼": 2577,
      "猎": 2578,
      "猕": 2579,
      "猖": 2580,
      "猛": 2581,
      "猜": 2582,
      "猝": 2583,
      "猢": 2584,
      "猥": 2585,
      "猩": 2586,
      "猪": 2587,
      "猫": 2588,
      "猬": 2589,
      "献": 2590,
      "猴": 2591,
      "猾": 2592,
      "猿": 2593,
      "獒": 2594,
      "獗": 2595,
      "獠": 2596,
      "獭": 2597,
      "玄": 2598,
      "率": 2599,
      "玉": 2600,
      "王": 2601,
      "玖": 2602,
      "玛": 2603,
      "玥": 2604,
      "玩": 2605,
      "玫": 2606,
      "玮": 2607,
      "环": 2608,
      "现": 2609,
      "玲": 2610,
      "玷": 2611,
      "玺": 2612,
      "玻": 2613,
      "珀": 2614,
      "珂": 2615,
      "珅": 2616,
      "珈": 2617,
      "珊": 2618,
      "珍": 2619,
      "珏": 2620,
      "珑": 2621,
      "珞": 2622,
      "珠": 2623,
      "班": 2624,
      "球": 2625,
      "琅": 2626,
      "理": 2627,
      "琉": 2628,
      "琊": 2629,
      "琐": 2630,
      "琛": 2631,
      "琢": 2632,
      "琥": 2633,
      "琦": 2634,
      "琨": 2635,
      "琪": 2636,
      "琳": 2637,
      "琴": 2638,
      "琵": 2639,
      "琶": 2640,
      "琼": 2641,
      "瑕": 2642,
      "瑙": 2643,
      "瑚": 2644,
      "瑛": 2645,
      "瑜": 2646,
      "瑞": 2647,
      "瑟": 2648,
      "瑰": 2649,
      "瑶": 2650,
      "瑾": 2651,
      "璀": 2652,
      "璃": 2653,
      "璇": 2654,
      "璋": 2655,
      "璐": 2656,
      "璞": 2657,
      "璧": 2658,
      "璨": 2659,
      "瓜": 2660,
      "瓢": 2661,
      "瓣": 2662,
      "瓦": 2663,
      "瓮": 2664,
      "瓶": 2665,
      "瓷": 2666,
      "甄": 2667,
      "甘": 2668,
      "甚": 2669,
      "甜": 2670,
      "生": 2671,
      "甥": 2672,
      "用": 2673,
      "甩": 2674,
      "甫": 2675,
      "甭": 2676,
      "田": 2677,
      "由": 2678,
      "甲": 2679,
      "申": 2680,
      "电": 2681,
      "男": 2682,
      "甸": 2683,
      "画": 2684,
      "畅": 2685,
      "界": 2686,
      "畏": 2687,
      "畔": 2688,
      "留": 2689,
      "畜": 2690,
      "略": 2691,
      "番": 2692,
      "畴": 2693,
      "畸": 2694,
      "疆": 2695,
      "疏": 2696,
      "疑": 2697,
      "疗": 2698,
      "疙": 2699,
      "疚": 2700,
      "疡": 2701,
      "疤": 2702,
      "疫": 2703,
      "疮": 2704,
      "疯": 2705,
      "疲": 2706,
      "疵": 2707,
      "疹": 2708,
      "疼": 2709,
      "疾": 2710,
      "痂": 2711,
      "病": 2712,
      "症": 2713,
      "痉": 2714,
      "痊": 2715,
      "痒": 2716,
      "痔": 2717,
      "痕": 2718,
      "痘": 2719,
      "痛": 2720,
      "痞": 2721,
      "痣": 2722,
      "痦": 2723,
      "痧": 2724,
      "痨": 2725,
      "痪": 2726,
      "痫": 2727,
      "痰": 2728,
      "痱": 2729,
      "痴": 2730,
      "痹": 2731,
      "痿": 2732,
      "瘀": 2733,
      "瘁": 2734,
      "瘟": 2735,
      "瘠": 2736,
      "瘤": 2737,
      "瘦": 2738,
      "瘩": 2739,
      "瘪": 2740,
      "瘫": 2741,
      "瘴": 2742,
      "瘸": 2743,
      "瘾": 2744,
      "癌": 2745,
      "癖": 2746,
      "癞": 2747,
      "癫": 2748,
      "登": 2749,
      "白": 2750,
      "百": 2751,
      "皂": 2752,
      "的": 2753,
      "皆": 2754,
      "皇": 2755,
      "皈": 2756,
      "皎": 2757,
      "皑": 2758,
      "皓": 2759,
      "皖": 2760,
      "皙": 2761,
      "皮": 2762,
      "皱": 2763,
      "盆": 2764,
      "盈": 2765,
      "益": 2766,
      "盎": 2767,
      "盏": 2768,
      "盐": 2769,
      "监": 2770,
      "盒": 2771,
      "盔": 2772,
      "盖": 2773,
      "盗": 2774,
      "盘": 2775,
      "盛": 2776,
      "盟": 2777,
      "目": 2778,
      "盯": 2779,
      "盲": 2780,
      "直": 2781,
      "相": 2782,
      "盹": 2783,
      "盼": 2784,
      "盾": 2785,
      "省": 2786,
      "眈": 2787,
      "眉": 2788,
      "看": 2789,
      "真": 2790,
      "眠": 2791,
      "眨": 2792,
      "眩": 2793,
      "眯": 2794,
      "眶": 2795,
      "眷": 2796,
      "眸": 2797,
      "眺": 2798,
      "眼": 2799,
      "着": 2800,
      "睁": 2801,
      "睐": 2802,
      "睚": 2803,
      "睛": 2804,
      "睡": 2805,
      "督": 2806,
      "睥": 2807,
      "睦": 2808,
      "睨": 2809,
      "睫": 2810,
      "睬": 2811,
      "睹": 2812,
      "睽": 2813,
      "睾": 2814,
      "睿": 2815,
      "瞄": 2816,
      "瞅": 2817,
      "瞌": 2818,
      "瞎": 2819,
      "瞑": 2820,
      "瞒": 2821,
      "瞟": 2822,
      "瞥": 2823,
      "瞧": 2824,
      "瞩": 2825,
      "瞪": 2826,
      "瞬": 2827,
      "瞭": 2828,
      "瞰": 2829,
      "瞳": 2830,
      "瞻": 2831,
      "矛": 2832,
      "矜": 2833,
      "矢": 2834,
      "矣": 2835,
      "知": 2836,
      "矩": 2837,
      "矫": 2838,
      "矬": 2839,
      "短": 2840,
      "矮": 2841,
      "石": 2842,
      "矶": 2843,
      "矿": 2844,
      "码": 2845,
      "砂": 2846,
      "砌": 2847,
      "砍": 2848,
      "砒": 2849,
      "研": 2850,
      "砖": 2851,
      "砚": 2852,
      "砝": 2853,
      "砣": 2854,
      "砧": 2855,
      "砰": 2856,
      "破": 2857,
      "砸": 2858,
      "砺": 2859,
      "砾": 2860,
      "础": 2861,
      "硅": 2862,
      "硌": 2863,
      "硕": 2864,
      "硝": 2865,
      "硫": 2866,
      "硬": 2867,
      "确": 2868,
      "碉": 2869,
      "碌": 2870,
      "碍": 2871,
      "碎": 2872,
      "碑": 2873,
      "碗": 2874,
      "碘": 2875,
      "碜": 2876,
      "碟": 2877,
      "碧": 2878,
      "碰": 2879,
      "碱": 2880,
      "碳": 2881,
      "碴": 2882,
      "碾": 2883,
      "磁": 2884,
      "磅": 2885,
      "磊": 2886,
      "磋": 2887,
      "磐": 2888,
      "磕": 2889,
      "磨": 2890,
      "磬": 2891,
      "磷": 2892,
      "磺": 2893,
      "礁": 2894,
      "示": 2895,
      "礼": 2896,
      "社": 2897,
      "祀": 2898,
      "祁": 2899,
      "祈": 2900,
      "祖": 2901,
      "祛": 2902,
      "祝": 2903,
      "神": 2904,
      "祟": 2905,
      "祠": 2906,
      "祥": 2907,
      "票": 2908,
      "祭": 2909,
      "祷": 2910,
      "祸": 2911,
      "禀": 2912,
      "禁": 2913,
      "禄": 2914,
      "禅": 2915,
      "福": 2916,
      "禧": 2917,
      "禹": 2918,
      "禺": 2919,
      "离": 2920,
      "禽": 2921,
      "禾": 2922,
      "秀": 2923,
      "私": 2924,
      "秃": 2925,
      "秉": 2926,
      "秋": 2927,
      "种": 2928,
      "科": 2929,
      "秒": 2930,
      "秘": 2931,
      "租": 2932,
      "秤": 2933,
      "秦": 2934,
      "秧": 2935,
      "秩": 2936,
      "积": 2937,
      "称": 2938,
      "移": 2939,
      "秽": 2940,
      "稀": 2941,
      "程": 2942,
      "稍": 2943,
      "税": 2944,
      "稚": 2945,
      "稞": 2946,
      "稠": 2947,
      "稣": 2948,
      "稳": 2949,
      "稷": 2950,
      "稻": 2951,
      "稼": 2952,
      "稽": 2953,
      "稿": 2954,
      "穆": 2955,
      "穗": 2956,
      "穴": 2957,
      "究": 2958,
      "穷": 2959,
      "穹": 2960,
      "空": 2961,
      "穿": 2962,
      "突": 2963,
      "窃": 2964,
      "窄": 2965,
      "窈": 2966,
      "窍": 2967,
      "窑": 2968,
      "窒": 2969,
      "窕": 2970,
      "窖": 2971,
      "窗": 2972,
      "窘": 2973,
      "窜": 2974,
      "窝": 2975,
      "窟": 2976,
      "窥": 2977,
      "窦": 2978,
      "窿": 2979,
      "立": 2980,
      "竖": 2981,
      "站": 2982,
      "竞": 2983,
      "竟": 2984,
      "章": 2985,
      "童": 2986,
      "竭": 2987,
      "端": 2988,
      "竹": 2989,
      "竺": 2990,
      "竽": 2991,
      "竿": 2992,
      "笃": 2993,
      "笆": 2994,
      "笋": 2995,
      "笑": 2996,
      "笔": 2997,
      "笙": 2998,
      "笛": 2999,
      "笠": 3000,
      "符": 3001,
      "笨": 3002,
      "第": 3003,
      "笼": 3004,
      "等": 3005,
      "筋": 3006,
      "筏": 3007,
      "筐": 3008,
      "筑": 3009,
      "筒": 3010,
      "答": 3011,
      "策": 3012,
      "筛": 3013,
      "筝": 3014,
      "筱": 3015,
      "筷": 3016,
      "筹": 3017,
      "签": 3018,
      "简": 3019,
      "箍": 3020,
      "箔": 3021,
      "算": 3022,
      "管": 3023,
      "箩": 3024,
      "箫": 3025,
      "箭": 3026,
      "箱": 3027,
      "篆": 3028,
      "篇": 3029,
      "篓": 3030,
      "篝": 3031,
      "篡": 3032,
      "篮": 3033,
      "篱": 3034,
      "篷": 3035,
      "簇": 3036,
      "簧": 3037,
      "簪": 3038,
      "簸": 3039,
      "簿": 3040,
      "籁": 3041,
      "籍": 3042,
      "米": 3043,
      "类": 3044,
      "籽": 3045,
      "粉": 3046,
      "粑": 3047,
      "粒": 3048,
      "粗": 3049,
      "粘": 3050,
      "粟": 3051,
      "粤": 3052,
      "粥": 3053,
      "粪": 3054,
      "粮": 3055,
      "粱": 3056,
      "粹": 3057,
      "粽": 3058,
      "精": 3059,
      "糅": 3060,
      "糊": 3061,
      "糍": 3062,
      "糕": 3063,
      "糖": 3064,
      "糗": 3065,
      "糙": 3066,
      "糜": 3067,
      "糟": 3068,
      "糠": 3069,
      "糯": 3070,
      "系": 3071,
      "紊": 3072,
      "素": 3073,
      "索": 3074,
      "紧": 3075,
      "紫": 3076,
      "累": 3077,
      "絮": 3078,
      "繁": 3079,
      "纠": 3080,
      "红": 3081,
      "纣": 3082,
      "纤": 3083,
      "约": 3084,
      "级": 3085,
      "纪": 3086,
      "纫": 3087,
      "纬": 3088,
      "纯": 3089,
      "纰": 3090,
      "纱": 3091,
      "纲": 3092,
      "纳": 3093,
      "纵": 3094,
      "纶": 3095,
      "纷": 3096,
      "纸": 3097,
      "纹": 3098,
      "纺": 3099,
      "纽": 3100,
      "线": 3101,
      "练": 3102,
      "组": 3103,
      "绅": 3104,
      "细": 3105,
      "织": 3106,
      "终": 3107,
      "绉": 3108,
      "绊": 3109,
      "绍": 3110,
      "绎": 3111,
      "经": 3112,
      "绑": 3113,
      "绒": 3114,
      "结": 3115,
      "绕": 3116,
      "绘": 3117,
      "给": 3118,
      "绚": 3119,
      "络": 3120,
      "绝": 3121,
      "绞": 3122,
      "统": 3123,
      "绢": 3124,
      "绣": 3125,
      "继": 3126,
      "绩": 3127,
      "绪": 3128,
      "绫": 3129,
      "续": 3130,
      "绮": 3131,
      "绯": 3132,
      "绰": 3133,
      "绳": 3134,
      "维": 3135,
      "绵": 3136,
      "绷": 3137,
      "绸": 3138,
      "综": 3139,
      "绽": 3140,
      "绿": 3141,
      "缀": 3142,
      "缅": 3143,
      "缆": 3144,
      "缇": 3145,
      "缈": 3146,
      "缉": 3147,
      "缎": 3148,
      "缓": 3149,
      "缔": 3150,
      "缕": 3151,
      "编": 3152,
      "缘": 3153,
      "缚": 3154,
      "缜": 3155,
      "缝": 3156,
      "缠": 3157,
      "缤": 3158,
      "缥": 3159,
      "缨": 3160,
      "缩": 3161,
      "缪": 3162,
      "缭": 3163,
      "缰": 3164,
      "缴": 3165,
      "缸": 3166,
      "缺": 3167,
      "罂": 3168,
      "罐": 3169,
      "网": 3170,
      "罕": 3171,
      "罗": 3172,
      "罚": 3173,
      "罡": 3174,
      "罢": 3175,
      "罩": 3176,
      "罪": 3177,
      "置": 3178,
      "署": 3179,
      "羁": 3180,
      "羊": 3181,
      "羌": 3182,
      "美": 3183,
      "羔": 3184,
      "羚": 3185,
      "羞": 3186,
      "羡": 3187,
      "群": 3188,
      "羯": 3189,
      "羲": 3190,
      "羹": 3191,
      "羽": 3192,
      "羿": 3193,
      "翁": 3194,
      "翅": 3195,
      "翔": 3196,
      "翘": 3197,
      "翟": 3198,
      "翠": 3199,
      "翡": 3200,
      "翩": 3201,
      "翰": 3202,
      "翱": 3203,
      "翻": 3204,
      "翼": 3205,
      "耀": 3206,
      "老": 3207,
      "考": 3208,
      "者": 3209,
      "而": 3210,
      "耍": 3211,
      "耐": 3212,
      "耕": 3213,
      "耗": 3214,
      "耘": 3215,
      "耙": 3216,
      "耳": 3217,
      "耶": 3218,
      "耷": 3219,
      "耸": 3220,
      "耻": 3221,
      "耽": 3222,
      "耿": 3223,
      "聂": 3224,
      "聆": 3225,
      "聊": 3226,
      "聋": 3227,
      "职": 3228,
      "联": 3229,
      "聘": 3230,
      "聚": 3231,
      "聪": 3232,
      "肃": 3233,
      "肆": 3234,
      "肇": 3235,
      "肉": 3236,
      "肋": 3237,
      "肌": 3238,
      "肏": 3239,
      "肖": 3240,
      "肘": 3241,
      "肚": 3242,
      "肛": 3243,
      "肝": 3244,
      "肠": 3245,
      "股": 3246,
      "肢": 3247,
      "肤": 3248,
      "肥": 3249,
      "肩": 3250,
      "肪": 3251,
      "肮": 3252,
      "肯": 3253,
      "肱": 3254,
      "育": 3255,
      "肴": 3256,
      "肺": 3257,
      "肾": 3258,
      "肿": 3259,
      "胀": 3260,
      "胁": 3261,
      "胃": 3262,
      "胆": 3263,
      "背": 3264,
      "胎": 3265,
      "胖": 3266,
      "胚": 3267,
      "胜": 3268,
      "胞": 3269,
      "胡": 3270,
      "胤": 3271,
      "胧": 3272,
      "胭": 3273,
      "胯": 3274,
      "胰": 3275,
      "胱": 3276,
      "胳": 3277,
      "胶": 3278,
      "胸": 3279,
      "胺": 3280,
      "能": 3281,
      "脂": 3282,
      "脆": 3283,
      "脉": 3284,
      "脊": 3285,
      "脏": 3286,
      "脐": 3287,
      "脑": 3288,
      "脓": 3289,
      "脖": 3290,
      "脚": 3291,
      "脯": 3292,
      "脱": 3293,
      "脸": 3294,
      "脾": 3295,
      "腆": 3296,
      "腊": 3297,
      "腋": 3298,
      "腌": 3299,
      "腐": 3300,
      "腑": 3301,
      "腔": 3302,
      "腕": 3303,
      "腚": 3304,
      "腥": 3305,
      "腩": 3306,
      "腮": 3307,
      "腰": 3308,
      "腱": 3309,
      "腹": 3310,
      "腺": 3311,
      "腻": 3312,
      "腼": 3313,
      "腾": 3314,
      "腿": 3315,
      "膀": 3316,
      "膈": 3317,
      "膊": 3318,
      "膏": 3319,
      "膑": 3320,
      "膘": 3321,
      "膛": 3322,
      "膜": 3323,
      "膝": 3324,
      "膨": 3325,
      "膳": 3326,
      "膻": 3327,
      "臀": 3328,
      "臂": 3329,
      "臃": 3330,
      "臆": 3331,
      "臊": 3332,
      "臣": 3333,
      "臧": 3334,
      "自": 3335,
      "臭": 3336,
      "至": 3337,
      "致": 3338,
      "臻": 3339,
      "臼": 3340,
      "舀": 3341,
      "舅": 3342,
      "舆": 3343,
      "舌": 3344,
      "舍": 3345,
      "舐": 3346,
      "舒": 3347,
      "舔": 3348,
      "舜": 3349,
      "舞": 3350,
      "舟": 3351,
      "航": 3352,
      "般": 3353,
      "舰": 3354,
      "舱": 3355,
      "舵": 3356,
      "船": 3357,
      "艇": 3358,
      "艘": 3359,
      "艮": 3360,
      "良": 3361,
      "艰": 3362,
      "色": 3363,
      "艳": 3364,
      "艹": 3365,
      "艺": 3366,
      "艾": 3367,
      "节": 3368,
      "芊": 3369,
      "芋": 3370,
      "芍": 3371,
      "芒": 3372,
      "芙": 3373,
      "芜": 3374,
      "芝": 3375,
      "芥": 3376,
      "芦": 3377,
      "芬": 3378,
      "芭": 3379,
      "芮": 3380,
      "芯": 3381,
      "花": 3382,
      "芳": 3383,
      "芷": 3384,
      "芸": 3385,
      "芹": 3386,
      "芽": 3387,
      "苇": 3388,
      "苍": 3389,
      "苏": 3390,
      "苑": 3391,
      "苒": 3392,
      "苓": 3393,
      "苔": 3394,
      "苗": 3395,
      "苛": 3396,
      "苜": 3397,
      "苞": 3398,
      "苟": 3399,
      "若": 3400,
      "苦": 3401,
      "英": 3402,
      "苹": 3403,
      "茁": 3404,
      "茂": 3405,
      "范": 3406,
      "茄": 3407,
      "茅": 3408,
      "茉": 3409,
      "茕": 3410,
      "茗": 3411,
      "茜": 3412,
      "茧": 3413,
      "茨": 3414,
      "茫": 3415,
      "茬": 3416,
      "茯": 3417,
      "茱": 3418,
      "茵": 3419,
      "茶": 3420,
      "茸": 3421,
      "茹": 3422,
      "荀": 3423,
      "荆": 3424,
      "草": 3425,
      "荏": 3426,
      "荐": 3427,
      "荒": 3428,
      "荔": 3429,
      "荜": 3430,
      "荞": 3431,
      "荟": 3432,
      "荡": 3433,
      "荣": 3434,
      "荤": 3435,
      "荧": 3436,
      "荨": 3437,
      "荫": 3438,
      "药": 3439,
      "荷": 3440,
      "荼": 3441,
      "莅": 3442,
      "莆": 3443,
      "莉": 3444,
      "莎": 3445,
      "莓": 3446,
      "莘": 3447,
      "莞": 3448,
      "莫": 3449,
      "莱": 3450,
      "莲": 3451,
      "莴": 3452,
      "获": 3453,
      "莹": 3454,
      "莺": 3455,
      "莽": 3456,
      "菀": 3457,
      "菁": 3458,
      "菇": 3459,
      "菊": 3460,
      "菌": 3461,
      "菏": 3462,
      "菜": 3463,
      "菠": 3464,
      "菩": 3465,
      "菱": 3466,
      "菲": 3467,
      "萃": 3468,
      "萄": 3469,
      "萌": 3470,
      "萍": 3471,
      "萎": 3472,
      "萝": 3473,
      "萤": 3474,
      "营": 3475,
      "萦": 3476,
      "萧": 3477,
      "萨": 3478,
      "萱": 3479,
      "落": 3480,
      "著": 3481,
      "葚": 3482,
      "葛": 3483,
      "葡": 3484,
      "董": 3485,
      "葩": 3486,
      "葫": 3487,
      "葬": 3488,
      "葱": 3489,
      "葵": 3490,
      "蒂": 3491,
      "蒋": 3492,
      "蒙": 3493,
      "蒜": 3494,
      "蒲": 3495,
      "蒸": 3496,
      "蒿": 3497,
      "蓄": 3498,
      "蓉": 3499,
      "蓓": 3500,
      "蓝": 3501,
      "蓦": 3502,
      "蓬": 3503,
      "蔑": 3504,
      "蔓": 3505,
      "蔗": 3506,
      "蔚": 3507,
      "蔡": 3508,
      "蔫": 3509,
      "蔬": 3510,
      "蔷": 3511,
      "蔻": 3512,
      "蔼": 3513,
      "蔽": 3514,
      "蕉": 3515,
      "蕊": 3516,
      "蕴": 3517,
      "蕾": 3518,
      "薄": 3519,
      "薅": 3520,
      "薇": 3521,
      "薏": 3522,
      "薛": 3523,
      "薪": 3524,
      "薯": 3525,
      "薰": 3526,
      "藉": 3527,
      "藏": 3528,
      "藐": 3529,
      "藓": 3530,
      "藕": 3531,
      "藤": 3532,
      "藻": 3533,
      "藿": 3534,
      "蘑": 3535,
      "蘸": 3536,
      "虎": 3537,
      "虏": 3538,
      "虐": 3539,
      "虑": 3540,
      "虔": 3541,
      "虚": 3542,
      "虞": 3543,
      "虫": 3544,
      "虹": 3545,
      "虽": 3546,
      "虾": 3547,
      "蚀": 3548,
      "蚁": 3549,
      "蚂": 3550,
      "蚊": 3551,
      "蚌": 3552,
      "蚓": 3553,
      "蚕": 3554,
      "蚝": 3555,
      "蚣": 3556,
      "蚤": 3557,
      "蚩": 3558,
      "蚪": 3559,
      "蚯": 3560,
      "蚱": 3561,
      "蛀": 3562,
      "蛆": 3563,
      "蛇": 3564,
      "蛊": 3565,
      "蛋": 3566,
      "蛎": 3567,
      "蛏": 3568,
      "蛐": 3569,
      "蛔": 3570,
      "蛙": 3571,
      "蛛": 3572,
      "蛟": 3573,
      "蛤": 3574,
      "蛮": 3575,
      "蛰": 3576,
      "蛳": 3577,
      "蛹": 3578,
      "蛾": 3579,
      "蜀": 3580,
      "蜂": 3581,
      "蜃": 3582,
      "蜇": 3583,
      "蜈": 3584,
      "蜒": 3585,
      "蜓": 3586,
      "蜕": 3587,
      "蜗": 3588,
      "蜘": 3589,
      "蜚": 3590,
      "蜜": 3591,
      "蜡": 3592,
      "蜥": 3593,
      "蜴": 3594,
      "蜷": 3595,
      "蜻": 3596,
      "蜿": 3597,
      "蝇": 3598,
      "蝈": 3599,
      "蝉": 3600,
      "蝌": 3601,
      "蝎": 3602,
      "蝗": 3603,
      "蝙": 3604,
      "蝠": 3605,
      "蝴": 3606,
      "蝶": 3607,
      "蝼": 3608,
      "螂": 3609,
      "螃": 3610,
      "融": 3611,
      "螨": 3612,
      "螳": 3613,
      "螺": 3614,
      "蟀": 3615,
      "蟆": 3616,
      "蟋": 3617,
      "蟑": 3618,
      "蟒": 3619,
      "蟠": 3620,
      "蟹": 3621,
      "蟾": 3622,
      "蠕": 3623,
      "蠢": 3624,
      "血": 3625,
      "衅": 3626,
      "行": 3627,
      "衍": 3628,
      "衔": 3629,
      "街": 3630,
      "衙": 3631,
      "衡": 3632,
      "衣": 3633,
      "补": 3634,
      "表": 3635,
      "衩": 3636,
      "衫": 3637,
      "衬": 3638,
      "衰": 3639,
      "衲": 3640,
      "衷": 3641,
      "衿": 3642,
      "袁": 3643,
      "袂": 3644,
      "袄": 3645,
      "袅": 3646,
      "袈": 3647,
      "袋": 3648,
      "袍": 3649,
      "袒": 3650,
      "袖": 3651,
      "袜": 3652,
      "被": 3653,
      "袭": 3654,
      "袱": 3655,
      "裁": 3656,
      "裂": 3657,
      "装": 3658,
      "裆": 3659,
      "裔": 3660,
      "裕": 3661,
      "裘": 3662,
      "裙": 3663,
      "裟": 3664,
      "裤": 3665,
      "裱": 3666,
      "裳": 3667,
      "裴": 3668,
      "裸": 3669,
      "裹": 3670,
      "褂": 3671,
      "褐": 3672,
      "褒": 3673,
      "褓": 3674,
      "褚": 3675,
      "褛": 3676,
      "褥": 3677,
      "褪": 3678,
      "褴": 3679,
      "褶": 3680,
      "襁": 3681,
      "襄": 3682,
      "襟": 3683,
      "西": 3684,
      "要": 3685,
      "覆": 3686,
      "见": 3687,
      "观": 3688,
      "规": 3689,
      "觅": 3690,
      "视": 3691,
      "览": 3692,
      "觉": 3693,
      "觊": 3694,
      "觎": 3695,
      "觑": 3696,
      "角": 3697,
      "觞": 3698,
      "解": 3699,
      "触": 3700,
      "言": 3701,
      "詹": 3702,
      "誉": 3703,
      "誓": 3704,
      "警": 3705,
      "譬": 3706,
      "计": 3707,
      "订": 3708,
      "认": 3709,
      "讥": 3710,
      "讧": 3711,
      "讨": 3712,
      "让": 3713,
      "讪": 3714,
      "训": 3715,
      "议": 3716,
      "讯": 3717,
      "记": 3718,
      "讲": 3719,
      "讳": 3720,
      "讴": 3721,
      "讶": 3722,
      "讷": 3723,
      "许": 3724,
      "讹": 3725,
      "论": 3726,
      "讼": 3727,
      "讽": 3728,
      "设": 3729,
      "访": 3730,
      "诀": 3731,
      "证": 3732,
      "评": 3733,
      "诅": 3734,
      "识": 3735,
      "诈": 3736,
      "诉": 3737,
      "诊": 3738,
      "诋": 3739,
      "词": 3740,
      "诏": 3741,
      "译": 3742,
      "诓": 3743,
      "试": 3744,
      "诗": 3745,
      "诙": 3746,
      "诚": 3747,
      "诛": 3748,
      "话": 3749,
      "诞": 3750,
      "诟": 3751,
      "诠": 3752,
      "诡": 3753,
      "询": 3754,
      "诣": 3755,
      "该": 3756,
      "详": 3757,
      "诧": 3758,
      "诩": 3759,
      "诫": 3760,
      "诬": 3761,
      "语": 3762,
      "误": 3763,
      "诱": 3764,
      "诲": 3765,
      "说": 3766,
      "诵": 3767,
      "诶": 3768,
      "请": 3769,
      "诸": 3770,
      "诺": 3771,
      "读": 3772,
      "诽": 3773,
      "课": 3774,
      "谁": 3775,
      "调": 3776,
      "谅": 3777,
      "谈": 3778,
      "谊": 3779,
      "谋": 3780,
      "谍": 3781,
      "谎": 3782,
      "谐": 3783,
      "谑": 3784,
      "谓": 3785,
      "谕": 3786,
      "谙": 3787,
      "谚": 3788,
      "谛": 3789,
      "谜": 3790,
      "谢": 3791,
      "谣": 3792,
      "谤": 3793,
      "谦": 3794,
      "谧": 3795,
      "谨": 3796,
      "谩": 3797,
      "谬": 3798,
      "谭": 3799,
      "谱": 3800,
      "谴": 3801,
      "谷": 3802,
      "豁": 3803,
      "豆": 3804,
      "豌": 3805,
      "豚": 3806,
      "象": 3807,
      "豪": 3808,
      "豫": 3809,
      "豹": 3810,
      "豺": 3811,
      "貂": 3812,
      "貅": 3813,
      "貌": 3814,
      "貔": 3815,
      "贝": 3816,
      "贞": 3817,
      "负": 3818,
      "贡": 3819,
      "财": 3820,
      "责": 3821,
      "贤": 3822,
      "败": 3823,
      "账": 3824,
      "货": 3825,
      "质": 3826,
      "贩": 3827,
      "贪": 3828,
      "贫": 3829,
      "贬": 3830,
      "购": 3831,
      "贯": 3832,
      "贰": 3833,
      "贱": 3834,
      "贴": 3835,
      "贵": 3836,
      "贷": 3837,
      "贸": 3838,
      "费": 3839,
      "贺": 3840,
      "贼": 3841,
      "贾": 3842,
      "贿": 3843,
      "赁": 3844,
      "赂": 3845,
      "赃": 3846,
      "资": 3847,
      "赊": 3848,
      "赋": 3849,
      "赌": 3850,
      "赎": 3851,
      "赏": 3852,
      "赐": 3853,
      "赔": 3854,
      "赖": 3855,
      "赘": 3856,
      "赚": 3857,
      "赛": 3858,
      "赞": 3859,
      "赠": 3860,
      "赢": 3861,
      "赣": 3862,
      "赤": 3863,
      "赦": 3864,
      "赫": 3865,
      "走": 3866,
      "赳": 3867,
      "赴": 3868,
      "赵": 3869,
      "赶": 3870,
      "起": 3871,
      "趁": 3872,
      "超": 3873,
      "越": 3874,
      "趋": 3875,
      "趟": 3876,
      "趣": 3877,
      "足": 3878,
      "趴": 3879,
      "趾": 3880,
      "跃": 3881,
      "跄": 3882,
      "跆": 3883,
      "跋": 3884,
      "跌": 3885,
      "跎": 3886,
      "跑": 3887,
      "跚": 3888,
      "跛": 3889,
      "距": 3890,
      "跟": 3891,
      "跤": 3892,
      "跨": 3893,
      "跪": 3894,
      "路": 3895,
      "跳": 3896,
      "践": 3897,
      "跶": 3898,
      "跷": 3899,
      "跺": 3900,
      "踉": 3901,
      "踊": 3902,
      "踏": 3903,
      "踝": 3904,
      "踞": 3905,
      "踢": 3906,
      "踩": 3907,
      "踪": 3908,
      "踮": 3909,
      "踵": 3910,
      "踹": 3911,
      "踽": 3912,
      "蹂": 3913,
      "蹄": 3914,
      "蹈": 3915,
      "蹉": 3916,
      "蹊": 3917,
      "蹋": 3918,
      "蹑": 3919,
      "蹒": 3920,
      "蹦": 3921,
      "蹩": 3922,
      "蹬": 3923,
      "蹭": 3924,
      "蹲": 3925,
      "蹶": 3926,
      "蹿": 3927,
      "躁": 3928,
      "躏": 3929,
      "身": 3930,
      "躬": 3931,
      "躯": 3932,
      "躲": 3933,
      "躺": 3934,
      "车": 3935,
      "轧": 3936,
      "轨": 3937,
      "轩": 3938,
      "转": 3939,
      "轮": 3940,
      "软": 3941,
      "轰": 3942,
      "轱": 3943,
      "轲": 3944,
      "轴": 3945,
      "轶": 3946,
      "轻": 3947,
      "载": 3948,
      "轿": 3949,
      "较": 3950,
      "辄": 3951,
      "辅": 3952,
      "辆": 3953,
      "辈": 3954,
      "辉": 3955,
      "辍": 3956,
      "辐": 3957,
      "辑": 3958,
      "输": 3959,
      "辕": 3960,
      "辖": 3961,
      "辗": 3962,
      "辘": 3963,
      "辙": 3964,
      "辛": 3965,
      "辜": 3966,
      "辞": 3967,
      "辟": 3968,
      "辣": 3969,
      "辨": 3970,
      "辩": 3971,
      "辫": 3972,
      "辰": 3973,
      "辱": 3974,
      "边": 3975,
      "辽": 3976,
      "达": 3977,
      "迁": 3978,
      "迂": 3979,
      "迄": 3980,
      "迅": 3981,
      "过": 3982,
      "迈": 3983,
      "迎": 3984,
      "运": 3985,
      "近": 3986,
      "返": 3987,
      "还": 3988,
      "这": 3989,
      "进": 3990,
      "远": 3991,
      "违": 3992,
      "连": 3993,
      "迟": 3994,
      "迢": 3995,
      "迥": 3996,
      "迦": 3997,
      "迪": 3998,
      "迫": 3999,
      "迭": 4000,
      "述": 4001,
      "迷": 4002,
      "迸": 4003,
      "迹": 4004,
      "追": 4005,
      "退": 4006,
      "送": 4007,
      "适": 4008,
      "逃": 4009,
      "逅": 4010,
      "逆": 4011,
      "选": 4012,
      "逊": 4013,
      "逍": 4014,
      "透": 4015,
      "逐": 4016,
      "逑": 4017,
      "递": 4018,
      "途": 4019,
      "逗": 4020,
      "通": 4021,
      "逛": 4022,
      "逝": 4023,
      "逞": 4024,
      "速": 4025,
      "造": 4026,
      "逢": 4027,
      "逮": 4028,
      "逵": 4029,
      "逸": 4030,
      "逻": 4031,
      "逼": 4032,
      "逾": 4033,
      "遁": 4034,
      "遂": 4035,
      "遇": 4036,
      "遍": 4037,
      "遏": 4038,
      "遐": 4039,
      "道": 4040,
      "遗": 4041,
      "遛": 4042,
      "遢": 4043,
      "遣": 4044,
      "遥": 4045,
      "遨": 4046,
      "遭": 4047,
      "遮": 4048,
      "遵": 4049,
      "避": 4050,
      "邀": 4051,
      "邂": 4052,
      "邃": 4053,
      "邋": 4054,
      "邑": 4055,
      "邓": 4056,
      "邢": 4057,
      "那": 4058,
      "邦": 4059,
      "邪": 4060,
      "邮": 4061,
      "邯": 4062,
      "邱": 4063,
      "邵": 4064,
      "邸": 4065,
      "邹": 4066,
      "邻": 4067,
      "郁": 4068,
      "郊": 4069,
      "郎": 4070,
      "郑": 4071,
      "郝": 4072,
      "郡": 4073,
      "部": 4074,
      "郫": 4075,
      "郭": 4076,
      "郴": 4077,
      "郸": 4078,
      "都": 4079,
      "鄂": 4080,
      "鄙": 4081,
      "酋": 4082,
      "酌": 4083,
      "配": 4084,
      "酒": 4085,
      "酗": 4086,
      "酚": 4087,
      "酝": 4088,
      "酣": 4089,
      "酥": 4090,
      "酪": 4091,
      "酬": 4092,
      "酱": 4093,
      "酵": 4094,
      "酶": 4095,
      "酷": 4096,
      "酸": 4097,
      "酿": 4098,
      "醇": 4099,
      "醉": 4100,
      "醋": 4101,
      "醍": 4102,
      "醐": 4103,
      "醒": 4104,
      "醛": 4105,
      "醺": 4106,
      "采": 4107,
      "釉": 4108,
      "释": 4109,
      "里": 4110,
      "重": 4111,
      "野": 4112,
      "量": 4113,
      "金": 4114,
      "釜": 4115,
      "鉴": 4116,
      "鑫": 4117,
      "针": 4118,
      "钉": 4119,
      "钊": 4120,
      "钓": 4121,
      "钗": 4122,
      "钙": 4123,
      "钛": 4124,
      "钝": 4125,
      "钞": 4126,
      "钟": 4127,
      "钠": 4128,
      "钢": 4129,
      "钥": 4130,
      "钦": 4131,
      "钧": 4132,
      "钩": 4133,
      "钮": 4134,
      "钰": 4135,
      "钱": 4136,
      "钳": 4137,
      "钵": 4138,
      "钹": 4139,
      "钻": 4140,
      "钾": 4141,
      "铁": 4142,
      "铂": 4143,
      "铃": 4144,
      "铅": 4145,
      "铆": 4146,
      "铐": 4147,
      "铛": 4148,
      "铜": 4149,
      "铝": 4150,
      "铠": 4151,
      "铢": 4152,
      "铤": 4153,
      "铬": 4154,
      "铭": 4155,
      "铮": 4156,
      "铲": 4157,
      "银": 4158,
      "铸": 4159,
      "铺": 4160,
      "链": 4161,
      "铿": 4162,
      "销": 4163,
      "锁": 4164,
      "锄": 4165,
      "锅": 4166,
      "锈": 4167,
      "锋": 4168,
      "锌": 4169,
      "锏": 4170,
      "锐": 4171,
      "错": 4172,
      "锚": 4173,
      "锡": 4174,
      "锢": 4175,
      "锣": 4176,
      "锤": 4177,
      "锥": 4178,
      "锦": 4179,
      "锭": 4180,
      "键": 4181,
      "锯": 4182,
      "锰": 4183,
      "锵": 4184,
      "锹": 4185,
      "锻": 4186,
      "镀": 4187,
      "镁": 4188,
      "镂": 4189,
      "镇": 4190,
      "镊": 4191,
      "镌": 4192,
      "镐": 4193,
      "镑": 4194,
      "镖": 4195,
      "镚": 4196,
      "镜": 4197,
      "镣": 4198,
      "镭": 4199,
      "镯": 4200,
      "镰": 4201,
      "镶": 4202,
      "长": 4203,
      "门": 4204,
      "闪": 4205,
      "闫": 4206,
      "闭": 4207,
      "问": 4208,
      "闯": 4209,
      "闰": 4210,
      "闲": 4211,
      "间": 4212,
      "闵": 4213,
      "闷": 4214,
      "闸": 4215,
      "闹": 4216,
      "闺": 4217,
      "闻": 4218,
      "闽": 4219,
      "阀": 4220,
      "阁": 4221,
      "阂": 4222,
      "阄": 4223,
      "阅": 4224,
      "阈": 4225,
      "阉": 4226,
      "阎": 4227,
      "阐": 4228,
      "阑": 4229,
      "阔": 4230,
      "阖": 4231,
      "阙": 4232,
      "阜": 4233,
      "队": 4234,
      "阡": 4235,
      "阪": 4236,
      "阮": 4237,
      "阱": 4238,
      "防": 4239,
      "阳": 4240,
      "阴": 4241,
      "阵": 4242,
      "阶": 4243,
      "阻": 4244,
      "阿": 4245,
      "陀": 4246,
      "陂": 4247,
      "附": 4248,
      "际": 4249,
      "陆": 4250,
      "陇": 4251,
      "陈": 4252,
      "陋": 4253,
      "陌": 4254,
      "降": 4255,
      "限": 4256,
      "陕": 4257,
      "陛": 4258,
      "陡": 4259,
      "院": 4260,
      "除": 4261,
      "陨": 4262,
      "险": 4263,
      "陪": 4264,
      "陵": 4265,
      "陶": 4266,
      "陷": 4267,
      "隅": 4268,
      "隆": 4269,
      "隋": 4270,
      "隍": 4271,
      "随": 4272,
      "隐": 4273,
      "隔": 4274,
      "隘": 4275,
      "隙": 4276,
      "障": 4277,
      "隧": 4278,
      "隶": 4279,
      "难": 4280,
      "雀": 4281,
      "雁": 4282,
      "雄": 4283,
      "雅": 4284,
      "集": 4285,
      "雇": 4286,
      "雉": 4287,
      "雌": 4288,
      "雍": 4289,
      "雏": 4290,
      "雕": 4291,
      "雨": 4292,
      "雪": 4293,
      "雯": 4294,
      "雳": 4295,
      "零": 4296,
      "雷": 4297,
      "雹": 4298,
      "雾": 4299,
      "需": 4300,
      "霄": 4301,
      "霆": 4302,
      "震": 4303,
      "霉": 4304,
      "霍": 4305,
      "霏": 4306,
      "霓": 4307,
      "霖": 4308,
      "霜": 4309,
      "霞": 4310,
      "露": 4311,
      "霸": 4312,
      "霹": 4313,
      "霾": 4314,
      "青": 4315,
      "靓": 4316,
      "靖": 4317,
      "静": 4318,
      "非": 4319,
      "靠": 4320,
      "靡": 4321,
      "面": 4322,
      "革": 4323,
      "靴": 4324,
      "靶": 4325,
      "鞋": 4326,
      "鞍": 4327,
      "鞘": 4328,
      "鞠": 4329,
      "鞭": 4330,
      "韦": 4331,
      "韧": 4332,
      "韩": 4333,
      "韬": 4334,
      "韭": 4335,
      "音": 4336,
      "韵": 4337,
      "韶": 4338,
      "页": 4339,
      "顶": 4340,
      "顷": 4341,
      "项": 4342,
      "顺": 4343,
      "须": 4344,
      "顽": 4345,
      "顾": 4346,
      "顿": 4347,
      "颁": 4348,
      "颂": 4349,
      "预": 4350,
      "颅": 4351,
      "领": 4352,
      "颇": 4353,
      "颈": 4354,
      "颉": 4355,
      "颊": 4356,
      "颌": 4357,
      "颐": 4358,
      "频": 4359,
      "颓": 4360,
      "颖": 4361,
      "颗": 4362,
      "题": 4363,
      "颚": 4364,
      "颜": 4365,
      "额": 4366,
      "颠": 4367,
      "颤": 4368,
      "颦": 4369,
      "风": 4370,
      "飒": 4371,
      "飓": 4372,
      "飕": 4373,
      "飘": 4374,
      "飙": 4375,
      "飚": 4376,
      "飞": 4377,
      "食": 4378,
      "餐": 4379,
      "餮": 4380,
      "饕": 4381,
      "饥": 4382,
      "饨": 4383,
      "饪": 4384,
      "饬": 4385,
      "饭": 4386,
      "饮": 4387,
      "饰": 4388,
      "饱": 4389,
      "饲": 4390,
      "饵": 4391,
      "饶": 4392,
      "饺": 4393,
      "饼": 4394,
      "饽": 4395,
      "饿": 4396,
      "馁": 4397,
      "馄": 4398,
      "馅": 4399,
      "馆": 4400,
      "馈": 4401,
      "馊": 4402,
      "馋": 4403,
      "馍": 4404,
      "馏": 4405,
      "馒": 4406,
      "首": 4407,
      "馗": 4408,
      "香": 4409,
      "馥": 4410,
      "馨": 4411,
      "马": 4412,
      "驭": 4413,
      "驮": 4414,
      "驯": 4415,
      "驰": 4416,
      "驱": 4417,
      "驳": 4418,
      "驴": 4419,
      "驶": 4420,
      "驷": 4421,
      "驸": 4422,
      "驹": 4423,
      "驻": 4424,
      "驼": 4425,
      "驾": 4426,
      "驿": 4427,
      "骁": 4428,
      "骂": 4429,
      "骄": 4430,
      "骅": 4431,
      "骆": 4432,
      "骇": 4433,
      "骋": 4434,
      "验": 4435,
      "骏": 4436,
      "骑": 4437,
      "骗": 4438,
      "骚": 4439,
      "骛": 4440,
      "骜": 4441,
      "骡": 4442,
      "骤": 4443,
      "骨": 4444,
      "骰": 4445,
      "骷": 4446,
      "骸": 4447,
      "骼": 4448,
      "髅": 4449,
      "髓": 4450,
      "高": 4451,
      "髦": 4452,
      "鬓": 4453,
      "鬟": 4454,
      "鬣": 4455,
      "鬼": 4456,
      "魁": 4457,
      "魂": 4458,
      "魃": 4459,
      "魄": 4460,
      "魅": 4461,
      "魇": 4462,
      "魉": 4463,
      "魍": 4464,
      "魏": 4465,
      "魑": 4466,
      "魔": 4467,
      "鱼": 4468,
      "鱿": 4469,
      "鲁": 4470,
      "鲈": 4471,
      "鲍": 4472,
      "鲑": 4473,
      "鲛": 4474,
      "鲜": 4475,
      "鲢": 4476,
      "鲤": 4477,
      "鲨": 4478,
      "鲫": 4479,
      "鲱": 4480,
      "鲲": 4481,
      "鲳": 4482,
      "鲶": 4483,
      "鲸": 4484,
      "鳄": 4485,
      "鳅": 4486,
      "鳌": 4487,
      "鳕": 4488,
      "鳖": 4489,
      "鳗": 4490,
      "鳝": 4491,
      "鳞": 4492,
      "鸟": 4493,
      "鸠": 4494,
      "鸡": 4495,
      "鸢": 4496,
      "鸣": 4497,
      "鸥": 4498,
      "鸦": 4499,
      "鸨": 4500,
      "鸭": 4501,
      "鸯": 4502,
      "鸳": 4503,
      "鸵": 4504,
      "鸽": 4505,
      "鸾": 4506,
      "鸿": 4507,
      "鹃": 4508,
      "鹄": 4509,
      "鹅": 4510,
      "鹉": 4511,
      "鹊": 4512,
      "鹌": 4513,
      "鹏": 4514,
      "鹑": 4515,
      "鹞": 4516,
      "鹤": 4517,
      "鹦": 4518,
      "鹫": 4519,
      "鹬": 4520,
      "鹭": 4521,
      "鹰": 4522,
      "鹿": 4523,
      "麋": 4524,
      "麒": 4525,
      "麓": 4526,
      "麟": 4527,
      "麦": 4528,
      "麻": 4529,
      "黄": 4530,
      "黍": 4531,
      "黎": 4532,
      "黏": 4533,
      "黑": 4534,
      "黔": 4535,
      "默": 4536,
      "黛": 4537,
      "黜": 4538,
      "黝": 4539,
      "黯": 4540,
      "鼎": 4541,
      "鼓": 4542,
      "鼠": 4543,
      "鼬": 4544,
      "鼻": 4545,
      "齁": 4546,
      "齐": 4547,
      "齿": 4548,
      "龄": 4549,
      "龅": 4550,
      "龇": 4551,
      "龈": 4552,
      "龊": 4553,
      "龌": 4554,
      "龙": 4555,
      "龚": 4556,
      "龟": 4557,
      "n</w>": 4558,
      "Y</w>": 4559,
      "髓</w>": 4560,
      "q</w>": 4561,
      "念</w>": 4562,
      "廷</w>": 4563,
      "e</w>": 4564,
      "g</w>": 4565,
      "式</w>": 4566,
      "d</w>": 4567,
      "芬</w>": 4568,
      "t</w>": 4569,
      "任</w>": 4570,
      "乃</w>": 4571,
      "o</w>": 4572,
      "队</w>": 4573,
      "光</w>": 4574,
      "者</w>": 4575,
      "谢</w>": 4576,
      "近</w>": 4577,
      "药</w>": 4578,
      "县</w>": 4579,
      "s</w>": 4580,
      "边</w>": 4581,
      "c</w>": 4582,
      "着</w>": 4583,
      "威</w>": 4584,
      "肚</w>": 4585,
      "册</w>": 4586,
      "r</w>": 4587,
      "I</w>": 4588,
      "起</w>": 4589,
      "性</w>": 4590,
      "O</w>": 4591,
      "刀</w>": 4592,
      "桥</w>": 4593,
      "博</w>": 4594,
      "穿</w>": 4595,
      "a</w>": 4596,
      "度</w>": 4597,
      "y</w>": 4598,
      "牌</w>": 4599,
      "点</w>": 4600,
      "院</w>": 4601,
      "罐</w>": 4602,
      "破</w>": 4603,
      "八</w>": 4604,
      "板</w>": 4605,
      "酒</w>": 4606,
      "A</w>": 4607,
      "去</w>": 4608,
      "S</w>": 4609,
      "顶</w>": 4610,
      "垫</w>": 4611,
      "肴</w>": 4612,
      "级</w>": 4613,
      "平</w>": 4614,
      "艾</w>": 4615,
      "凿</w>": 4616,
      "疾</w>": 4617,
      "帅</w>": 4618,
      "G</w>": 4619,
      "荼</w>": 4620,
      "雾</w>": 4621,
      "株</w>": 4622,
      "u</w>": 4623,
      "文</w>": 4624,
      "礼</w>": 4625,
      "禾</w>": 4626,
      "f</w>": 4627,
      "i</w>": 4628,
      "法</w>": 4629,
      "来</w>": 4630,
      "辅</w>": 4631,
      "薄</w>": 4632,
      "l</w>": 4633,
      "位</w>": 4634,
      "钱</w>": 4635,
      "厂</w>": 4636,
      "K</w>": 4637,
      "拦</w>": 4638,
      "失</w>": 4639,
      "入</w>": 4640,
      "月</w>": 4641,
      "v</w>": 4642,
      "单</w>": 4643,
      "枪</w>": 4644,
      "氓</w>": 4645,
      "径</w>": 4646,
      "力</w>": 4647,
      "粉</w>": 4648,
      "开</w>": 4649,
      "份</w>": 4650,
      "所</w>": 4651,
      "改</w>": 4652,
      "朝</w>": 4653,
      "造</w>": 4654,
      "狱</w>": 4655,
      "此</w>": 4656,
      "议</w>": 4657,
      "醉</w>": 4658,
      "区</w>": 4659,
      "水</w>": 4660,
      "填</w>": 4661,
      "宫</w>": 4662,
      "因</w>": 4663,
      "D</w>": 4664,
      "向</w>": 4665,
      "为</w>": 4666,
      "匹</w>": 4667,
      "h</w>": 4668,
      "丹</w>": 4669,
      "华</w>": 4670,
      "类</w>": 4671,
      "由</w>": 4672,
      "知</w>": 4673,
      "似</w>": 4674,
      "金</w>": 4675,
      "p</w>": 4676,
      "州</w>": 4677,
      "求</w>": 4678,
      "眶</w>": 4679,
      "堆</w>": 4680,
      "N</w>": 4681,
      "序</w>": 4682,
      "银</w>": 4683,
      "息</w>": 4684,
      "人</w>": 4685,
      "腔</w>": 4686,
      "蓄</w>": 4687,
      "杰</w>": 4688,
      "旨</w>": 4689,
      "奄</w>": 4690,
      "妮</w>": 4691,
      "极</w>": 4692,
      "系</w>": 4693,
      "线</w>": 4694,
      "氏</w>": 4695,
      "备</w>": 4696,
      "型</w>": 4697,
      "有</w>": 4698,
      "习</w>": 4699,
      "事</w>": 4700,
      "象</w>": 4701,
      "漏</w>": 4702,
      "T</w>": 4703,
      "附</w>": 4704,
      "灵</w>": 4705,
      "誉</w>": 4706,
      "子</w>": 4707,
      "地</w>": 4708,
      "可</w>": 4709,
      "会</w>": 4710,
      "娅</w>": 4711,
      "M</w>": 4712,
      "沟</w>": 4713,
      "R</w>": 4714,
      "糟</w>": 4715,
      "一</w>": 4716,
      "乘</w>": 4717,
      "C</w>": 4718,
      "君</w>": 4719,
      "多</w>": 4720,
      "险</w>": 4721,
      "站</w>": 4722,
      "F</w>": 4723,
      "吉</w>": 4724,
      "化</w>": 4725,
      "鱼</w>": 4726,
      "浴</w>": 4727,
      "合</w>": 4728,
      "店</w>": 4729,
      "率</w>": 4730,
      "口</w>": 4731,
      "间</w>": 4732,
      "E</w>": 4733,
      "易</w>": 4734,
      "亚</w>": 4735,
      "族</w>": 4736,
      "员</w>": 4737,
      "立</w>": 4738,
      "树</w>": 4739,
      "滤</w>": 4740,
      "k</w>": 4741,
      "导</w>": 4742,
      "到</w>": 4743,
      "富</w>": 4744,
      "次</w>": 4745,
      "域</w>": 4746,
      "城</w>": 4747,
      "出</w>": 4748,
      "泉</w>": 4749,
      "于</w>": 4750,
      "驻</w>": 4751,
      "夫</w>": 4752,
      "脏</w>": 4753,
      "烂</w>": 4754,
      "亮</w>": 4755,
      "特</w>": 4756,
      "进</w>": 4757,
      "路</w>": 4758,
      "器</w>": 4759,
      "孔</w>": 4760,
      "土</w>": 4761,
      "屋</w>": 4762,
      "拔</w>": 4763,
      "斯</w>": 4764,
      "颂</w>": 4765,
      "处</w>": 4766,
      "义</w>": 4767,
      "P</w>": 4768,
      "L</w>": 4769,
      "棒</w>": 4770,
      "熟</w>": 4771,
      "赋</w>": 4772,
      "墙</w>": 4773,
      "车</w>": 4774,
      "犯</w>": 4775,
      "施</w>": 4776,
      "卡</w>": 4777,
      "清</w>": 4778,
      "梦</w>": 4779,
      "羊</w>": 4780,
      "日</w>": 4781,
      "轮</w>": 4782,
      "时</w>": 4783,
      "海</w>": 4784,
      "天</w>": 4785,
      "铸</w>": 4786,
      "库</w>": 4787,
      "脊</w>": 4788,
      "m</w>": 4789,
      "锁</w>": 4790,
      "碱</w>": 4791,
      "染</w>": 4792,
      "乐</w>": 4793,
      "洞</w>": 4794,
      "虫</w>": 4795,
      "林</w>": 4796,
      "素</w>": 4797,
      "角</w>": 4798,
      "管</w>": 4799,
      "拾</w>": 4800,
      "房</w>": 4801,
      "钢</w>": 4802,
      "奖</w>": 4803,
      "成</w>": 4804,
      "理</w>": 4805,
      "提</w>": 4806,
      "织</w>": 4807,
      "漂</w>": 4808,
      "尔</w>": 4809,
      "苦</w>": 4810,
      "长</w>": 4811,
      "凤</w>": 4812,
      "未</w>": 4813,
      "其</w>": 4814,
      "第</w>": 4815,
      "宝</w>": 4816,
      "隆</w>": 4817,
      "V</w>": 4818,
      "晶</w>": 4819,
      "上</w>": 4820,
      "称</w>": 4821,
      "活</w>": 4822,
      "刚</w>": 4823,
      "瓦</w>": 4824,
      "统</w>": 4825,
      "善</w>": 4826,
      "索</w>": 4827,
      "飞</w>": 4828,
      "笑</w>": 4829,
      "帕</w>": 4830,
      "命</w>": 4831,
      "耶</w>": 4832,
      "争</w>": 4833,
      "伤</w>": 4834,
      "身</w>": 4835,
      "部</w>": 4836,
      "请</w>": 4837,
      "讳</w>": 4838,
      "版</w>": 4839,
      "伟</w>": 4840,
      "w</w>": 4841,
      "及</w>": 4842,
      "勿</w>": 4843,
      "阴</w>": 4844,
      "媛</w>": 4845,
      "代</w>": 4846,
      "完</w>": 4847,
      "助</w>": 4848,
      "崩</w>": 4849,
      "信</w>": 4850,
      "梯</w>": 4851,
      "数</w>": 4852,
      "判</w>": 4853,
      "里</w>": 4854,
      "叶</w>": 4855,
      "字</w>": 4856,
      "摸</w>": 4857,
      "置</w>": 4858,
      "普</w>": 4859,
      "裤</w>": 4860,
      "蒂</w>": 4861,
      "值</w>": 4862,
      "灭</w>": 4863,
      "握</w>": 4864,
      "油</w>": 4865,
      "球</w>": 4866,
      "局</w>": 4867,
      "兵</w>": 4868,
      "泵</w>": 4869,
      "论</w>": 4870,
      "万</w>": 4871,
      "话</w>": 4872,
      "下</w>": 4873,
      "z</w>": 4874,
      "荔</w>": 4875,
      "露</w>": 4876,
      "腾</w>": 4877,
      "樊</w>": 4878,
      "镇</w>": 4879,
      "淌</w>": 4880,
      "见</w>": 4881,
      "阅</w>": 4882,
      "雨</w>": 4883,
      "病</w>": 4884,
      "花</w>": 4885,
      "重</w>": 4886,
      "领</w>": 4887,
      "旧</w>": 4888,
      "整</w>": 4889,
      "官</w>": 4890,
      "安</w>": 4891,
      "模</w>": 4892,
      "邦</w>": 4893,
      "主</w>": 4894,
      "弹</w>": 4895,
      "欧</w>": 4896,
      "家</w>": 4897,
      "许</w>": 4898,
      "昂</w>": 4899,
      "能</w>": 4900,
      "塔</w>": 4901,
      "带</w>": 4902,
      "拿</w>": 4903,
      "选</w>": 4904,
      "损</w>": 4905,
      "用</w>": 4906,
      "饬</w>": 4907,
      "通</w>": 4908,
      "癌</w>": 4909,
      "百</w>": 4910,
      "前</w>": 4911,
      "回</w>": 4912,
      "阵</w>": 4913,
      "外</w>": 4914,
      "雅</w>": 4915,
      "五</w>": 4916,
      "嘴</w>": 4917,
      "纸</w>": 4918,
      "圆</w>": 4919,
      "申</w>": 4920,
      "关</w>": 4921,
      "纹</w>": 4922,
      "让</w>": 4923,
      "本</w>": 4924,
      "囊</w>": 4925,
      "蒙</w>": 4926,
      "翩</w>": 4927,
      "松</w>": 4928,
      "价</w>": 4929,
      "产</w>": 4930,
      "询</w>": 4931,
      "液</w>": 4932,
      "燥</w>": 4933,
      "门</w>": 4934,
      "报</w>": 4935,
      "行</w>": 4936,
      "方</w>": 4937,
      "群</w>": 4938,
      "箱</w>": 4939,
      "女</w>": 4940,
      "摇</w>": 4941,
      "功</w>": 4942,
      "氮</w>": 4943,
      "U</w>": 4944,
      "凸</w>": 4945,
      "冻</w>": 4946,
      "菌</w>": 4947,
      "故</w>": 4948,
      "三</w>": 4949,
      "菜</w>": 4950,
      "气</w>": 4951,
      "塞</w>": 4952,
      "账</w>": 4953,
      "塘</w>": 4954,
      "生</w>": 4955,
      "促</w>": 4956,
      "感</w>": 4957,
      "语</w>": 4958,
      "惰</w>": 4959,
      "尽</w>": 4960,
      "列</w>": 4961,
      "户</w>": 4962,
      "网</w>": 4963,
      "爷</w>": 4964,
      "升</w>": 4965,
      "貂</w>": 4966,
      "筒</w>": 4967,
      "内</w>": 4968,
      "档</w>": 4969,
      "维</w>": 4970,
      "狮</w>": 4971,
      "均</w>": 4972,
      "操</w>": 4973,
      "兰</w>": 4974,
      "弓</w>": 4975,
      "台</w>": 4976,
      "戈</w>": 4977,
      "交</w>": 4978,
      "烈</w>": 4979,
      "年</w>": 4980,
      "片</w>": 4981,
      "茨</w>": 4982,
      "斋</w>": 4983,
      "个</w>": 4984,
      "吵</w>": 4985,
      "加</w>": 4986,
      "恩</w>": 4987,
      "小</w>": 4988,
      "省</w>": 4989,
      "柔</w>": 4990,
      "餐</w>": 4991,
      "录</w>": 4992,
      "b</w>": 4993,
      "庙</w>": 4994,
      "隐</w>": 4995,
      "高</w>": 4996,
      "框</w>": 4997,
      "耐</w>": 4998,
      "缺</w>": 4999,
      "态</w>": 5000,
      "干</w>": 5001,
      "就</w>": 5002,
      "市</w>": 5003,
      "斗</w>": 5004,
      "经</w>": 5005,
      "岸</w>": 5006,
      "仅</w>": 5007,
      "熙</w>": 5008,
      "必</w>": 5009,
      "食</w>": 5010,
      "宁</w>": 5011,
      "教</w>": 5012,
      "差</w>": 5013,
      "讼</w>": 5014,
      "令</w>": 5015,
      "娜</w>": 5016,
      "言</w>": 5017,
      "马</w>": 5018,
      "膜</w>": 5019,
      "芽</w>": 5020,
      "租</w>": 5021,
      "以</w>": 5022,
      "英</w>": 5023,
      "砖</w>": 5024,
      "作</w>": 5025,
      "料</w>": 5026,
      "动</w>": 5027,
      "欣</w>": 5028,
      "芦</w>": 5029,
      "炎</w>": 5030,
      "丝</w>": 5031,
      "伦</w>": 5032,
      "货</w>": 5033,
      "鞋</w>": 5034,
      "看</w>": 5035,
      "尼</w>": 5036,
      "费</w>": 5037,
      "山</w>": 5038,
      "条</w>": 5039,
      "巴</w>": 5040,
      "脾</w>": 5041,
      "粥</w>": 5042,
      "务</w>": 5043,
      "罪</w>": 5044,
      "保</w>": 5045,
      "诺</w>": 5046,
      "娘</w>": 5047,
      "非</w>": 5048,
      "效</w>": 5049,
      "密</w>": 5050,
      "端</w>": 5051,
      "后</w>": 5052,
      "珊</w>": 5053,
      "壤</w>": 5054,
      "剂</w>": 5055,
      "颤</w>": 5056,
      "容</w>": 5057,
      "河</w>": 5058,
      "学</w>": 5059,
      "暴</w>": 5060,
      "楼</w>": 5061,
      "泥</w>": 5062,
      "罗</w>": 5063,
      "泽</w>": 5064,
      "制</w>": 5065,
      "中</w>": 5066,
      "掩</w>": 5067,
      "W</w>": 5068,
      "督</w>": 5069,
      "发</w>": 5070,
      "叹</w>": 5071,
      "案</w>": 5072,
      "冠</w>": 5073,
      "援</w>": 5074,
      "频</w>": 5075,
      "赏</w>": 5076,
      "实</w>": 5077,
      "船</w>": 5078,
      "雄</w>": 5079,
      "体</w>": 5080,
      "结</w>": 5081,
      "触</w>": 5082,
      "格</w>": 5083,
      "千</w>": 5084,
      "具</w>": 5085,
      "波</w>": 5086,
      "沃</w>": 5087,
      "阀</w>": 5088,
      "疆</w>": 5089,
      "络</w>": 5090,
      "票</w>": 5091,
      "划</w>": 5092,
      "悍</w>": 5093,
      "权</w>": 5094,
      "太</w>": 5095,
      "晚</w>": 5096,
      "琴</w>": 5097,
      "段</w>": 5098,
      "渗</w>": 5099,
      "港</w>": 5100,
      "揽</w>": 5101,
      "避</w>": 5102,
      "众</w>": 5103,
      "军</w>": 5104,
      "要</w>": 5105,
      "过</w>": 5106,
      "哈</w>": 5107,
      "色</w>": 5108,
      "瑟</w>": 5109,
      "赛</w>": 5110,
      "玩</w>": 5111,
      "榜</w>": 5112,
      "源</w>": 5113,
      "包</w>": 5114,
      "遍</w>": 5115,
      "缘</w>": 5116,
      "句</w>": 5117,
      "吸</w>": 5118,
      "杂</w>": 5119,
      "医</w>": 5120,
      "琳</w>": 5121,
      "码</w>": 5122,
      "即</w>": 5123,
      "泓</w>": 5124,
      "替</w>": 5125,
      "根</w>": 5126,
      "印</w>": 5127,
      "额</w>": 5128,
      "科</w>": 5129,
      "东</w>": 5130,
      "辉</w>": 5131,
      "且</w>": 5132,
      "协</w>": 5133,
      "旋</w>": 5134,
      "变</w>": 5135,
      "羚</w>": 5136,
      "福</w>": 5137,
      "拉</w>": 5138,
      "患</w>": 5139,
      "浅</w>": 5140,
      "H</w>": 5141,
      "津</w>": 5142,
      "质</w>": 5143,
      "煌</w>": 5144,
      "枝</w>": 5145,
      "始</w>": 5146,
      "盖</w>": 5147,
      "笃</w>": 5148,
      "柱</w>": 5149,
      "量</w>": 5150,
      "籍</w>": 5151,
      "扉</w>": 5152,
      "陵</w>": 5153,
      "机</w>": 5154,
      "拍</w>": 5155,
      "项</w>": 5156,
      "防</w>": 5157,
      "丽</w>": 5158,
      "参</w>": 5159,
      "梅</w>": 5160,
      "配</w>": 5161,
      "静</w>": 5162,
      "醒</w>": 5163,
      "潮</w>": 5164,
      "岛</w>": 5165,
      "师</w>": 5166,
      "侧</w>": 5167,
      "桃</w>": 5168,
      "束</w>": 5169,
      "读</w>": 5170,
      "貌</w>": 5171,
      "睹</w>": 5172,
      "甸</w>": 5173,
      "嘉</w>": 5174,
      "兜</w>": 5175,
      "凳</w>": 5176,
      "炯</w>": 5177,
      "居</w>": 5178,
      "B</w>": 5179,
      "洛</w>": 5180,
      "购</w>": 5181,
      "头</w>": 5182,
      "育</w>": 5183,
      "视</w>": 5184,
      "风</w>": 5185,
      "粒</w>": 5186,
      "场</w>": 5187,
      "猫</w>": 5188,
      "正</w>": 5189,
      "规</w>": 5190,
      "炉</w>": 5191,
      "桑</w>": 5192,
      "供</w>": 5193,
      "裹</w>": 5194,
      "全</w>": 5195,
      "柠</w>": 5196,
      "卷</w>": 5197,
      "历</w>": 5198,
      "双</w>": 5199,
      "激</w>": 5200,
      "麻</w>": 5201,
      "术</w>": 5202,
      "益</w>": 5203,
      "商</w>": 5204,
      "膛</w>": 5205,
      "自</w>": 5206,
      "物</w>": 5207,
      "输</w>": 5208,
      "凑</w>": 5209,
      "期</w>": 5210,
      "溪</w>": 5211,
      "离</w>": 5212,
      "持</w>": 5213,
      "糖</w>": 5214,
      "肯</w>": 5215,
      "米</w>": 5216,
      "谱</w>": 5217,
      "刺</w>": 5218,
      "渍</w>": 5219,
      "歌</w>": 5220,
      "喜</w>": 5221,
      "宏</w>": 5222,
      "们</w>": 5223,
      "味</w>": 5224,
      "落</w>": 5225,
      "禄</w>": 5226,
      "脸</w>": 5227,
      "辛</w>": 5228,
      "阳</w>": 5229,
      "别</w>": 5230,
      "街</w>": 5231,
      "状</w>": 5232,
      "常</w>": 5233,
      "j</w>": 5234,
      "张</w>": 5235,
      "晕</w>": 5236,
      "螺</w>": 5237,
      "困</w>": 5238,
      "危</w>": 5239,
      "何</w>": 5240,
      "狐</w>": 5241,
      "墨</w>": 5242,
      "祥</w>": 5243,
      "嫂</w>": 5244,
      "尖</w>": 5245,
      "四</w>": 5246,
      "逢</w>": 5247,
      "题</w>": 5248,
      "节</w>": 5249,
      "逛</w>": 5250,
      "排</w>": 5251,
      "远</w>": 5252,
      "森</w>": 5253,
      "勃</w>": 5254,
      "讯</w>": 5255,
      "只</w>": 5256,
      "空</w>": 5257,
      "饼</w>": 5258,
      "史</w>": 5259,
      "克</w>": 5260,
      "断</w>": 5261,
      "燃</w>": 5262,
      "祖</w>": 5263,
      "死</w>": 5264,
      "堡</w>": 5265,
      "在</w>": 5266,
      "班</w>": 5267,
      "脑</w>": 5268,
      "明</w>": 5269,
      "显</w>": 5270,
      "训</w>": 5271,
      "聘</w>": 5272,
      "验</w>": 5273,
      "赢</w>": 5274,
      "增</w>": 5275,
      "收</w>": 5276,
      "石</w>": 5277,
      "圈</w>": 5278,
      "缎</w>": 5279,
      "兹</w>": 5280,
      "像</w>": 5281,
      "错</w>": 5282,
      "丁</w>": 5283,
      "藻</w>": 5284,
      "宣</w>": 5285,
      "采</w>": 5286,
      "债</w>": 5287,
      "说</w>": 5288,
      "直</w>": 5289,
      "大</w>": 5290,
      "层</w>": 5291,
      "魔</w>": 5292,
      "齿</w>": 5293,
      "再</w>": 5294,
      "x</w>": 5295,
      "计</w>": 5296,
      "观</w>": 5297,
      "帮</w>": 5298,
      "牛</w>": 5299,
      "寓</w>": 5300,
      "厨</w>": 5301,
      "德</w>": 5302,
      "样</w>": 5303,
      "钾</w>": 5304,
      "款</w>": 5305,
      "利</w>": 5306,
      "尸</w>": 5307,
      "同</w>": 5308,
      "芳</w>": 5309,
      "瘫</w>": 5310,
      "书</w>": 5311,
      "蓝</w>": 5312,
      "沥</w>": 5313,
      "勒</w>": 5314,
      "瑞</w>": 5315,
      "考</w>": 5316,
      "著</w>": 5317,
      "涩</w>": 5318,
      "使</w>": 5319,
      "劈</w>": 5320,
      "七</w>": 5321,
      "冶</w>": 5322,
      "杯</w>": 5323,
      "蠢</w>": 5324,
      "诉</w>": 5325,
      "敌</w>": 5326,
      "比</w>": 5327,
      "手</w>": 5328,
      "典</w>": 5329,
      "妻</w>": 5330,
      "枣</w>": 5331,
      "巾</w>": 5332,
      "荣</w>": 5333,
      "府</w>": 5334,
      "谷</w>": 5335,
      "岩</w>": 5336,
      "首</w>": 5337,
      "肘</w>": 5338,
      "营</w>": 5339,
      "盈</w>": 5340,
      "胖</w>": 5341,
      "慑</w>": 5342,
      "呼</w>": 5343,
      "腿</w>": 5344,
      "!</w>": 5345,
      "弱</w>": 5346,
      "挖</w>": 5347,
      "岁</w>": 5348,
      "康</w>": 5349,
      "查</w>": 5350,
      "是</w>": 5351,
      "乡</w>": 5352,
      "景</w>": 5353,
      "标</w>": 5354,
      "延</w>": 5355,
      "颈</w>": 5356,
      "较</w>": 5357,
      "给</w>": 5358,
      "满</w>": 5359,
      "折</w>": 5360,
      "歧</w>": 5361,
      "莉</w>": 5362,
      "玲</w>": 5363,
      "奇</w>": 5364,
      "从</w>": 5365,
      "示</w>": 5366,
      "剿</w>": 5367,
      "妆</w>": 5368,
      "狗</w>": 5369,
      "灰</w>": 5370,
      "搂</w>": 5371,
      "假</w>": 5372,
      "果</w>": 5373,
      "南</w>": 5374,
      "屑</w>": 5375,
      "与</w>": 5376,
      "误</w>": 5377,
      "神</w>": 5378,
      "捞</w>": 5379,
      "拢</w>": 5380,
      "岚</w>": 5381,
      "榆</w>": 5382,
      "托</w>": 5383,
      "桩</w>": 5384,
      "砂</w>": 5385,
      "王</w>": 5386,
      "骆</w>": 5387,
      "齐</w>": 5388,
      "士</w>": 5389,
      "穆</w>": 5390,
      "尝</w>": 5391,
      "卓</w>": 5392,
      "钩</w>": 5393,
      "症</w>": 5394,
      "定</w>": 5395,
      "世</w>": 5396,
      "杆</w>": 5397,
      "得</w>": 5398,
      "铜</w>": 5399,
      "对</w>": 5400,
      "精</w>": 5401,
      "云</w>": 5402,
      "架</w>": 5403,
      "净</w>": 5404,
      "流</w>": 5405,
      "步</w>": 5406,
      "吃</w>": 5407,
      "草</w>": 5408,
      "想</w>": 5409,
      "兔</w>": 5410,
      "搭</w>": 5411,
      "敢</w>": 5412,
      "种</w>": 5413,
      "套</w>": 5414,
      "胺</w>": 5415,
      "琼</w>": 5416,
      "降</w>": 5417,
      "西</w>": 5418,
      "道</w>": 5419,
      "庄</w>": 5420,
      "算</w>": 5421,
      "铭</w>": 5422,
      "黄</w>": 5423,
      "纳</w>": 5424,
      "帝</w>": 5425,
      "业</w>": 5426,
      "皮</w>": 5427,
      "纪</w>": 5428,
      "声</w>": 5429,
      "演</w>": 5430,
      "当</w>": 5431,
      "害</w>": 5432,
      "哭</w>": 5433,
      "午</w>": 5434,
      "鸟</w>": 5435,
      "蛋</w>": 5436,
      "藏</w>": 5437,
      "淫</w>": 5438,
      "杉</w>": 5439,
      "约</w>": 5440,
      "爵</w>": 5441,
      "歪</w>": 5442,
      "婚</w>": 5443,
      "欠</w>": 5444,
      "面</w>": 5445,
      "际</w>": 5446,
      "麟</w>": 5447,
      "养</w>": 5448,
      "换</w>": 5449,
      "治</w>": 5450,
      "池</w>": 5451,
      "舰</w>": 5452,
      "蜥</w>": 5453,
      "览</w>": 5454,
      "舱</w>": 5455,
      "盛</w>": 5456,
      "袋</w>": 5457,
      "件</w>": 5458,
      "轨</w>": 5459,
      "炼</w>": 5460,
      "勇</w>": 5461,
      "烧</w>": 5462,
      "臭</w>": 5463,
      "国</w>": 5464,
      "岱</w>": 5465,
      "青</w>": 5466,
      "诚</w>": 5467,
      "装</w>": 5468,
      "垒</w>": 5469,
      "隙</w>": 5470,
      "限</w>": 5471,
      "相</w>": 5472,
      "凯</w>": 5473,
      "脆</w>": 5474,
      "胆</w>": 5475,
      "铁</w>": 5476,
      "待</w>": 5477,
      "盲</w>": 5478,
      "萨</w>": 5479,
      "讲</w>": 5480,
      "找</w>": 5481,
      "担</w>": 5482,
      "纱</w>": 5483,
      "秦</w>": 5484,
      "脚</w>": 5485,
      "核</w>": 5486,
      "玛</w>": 5487,
      "新</w>": 5488,
      "良</w>": 5489,
      "迪</w>": 5490,
      "技</w>": 5491,
      "脉</w>": 5492,
      "旗</w>": 5493,
      "烦</w>": 5494,
      "武</w>": 5495,
      "曲</w>": 5496,
      "园</w>": 5497,
      "凡</w>": 5498,
      "奥</w>": 5499,
      "敦</w>": 5500,
      "应</w>": 5501,
      "宪</w>": 5502,
      "泳</w>": 5503,
      "农</w>": 5504,
      "坦</w>": 5505,
      "组</w>": 5506,
      "胃</w>": 5507,
      "律</w>": 5508,
      "志</w>": 5509,
      "支</w>": 5510,
      "证</w>": 5511,
      "串</w>": 5512,
      "告</w>": 5513,
      "玖</w>": 5514,
      "裔</w>": 5515,
      "姑</w>": 5516,
      "接</w>": 5517,
      "漆</w>": 5518,
      "吊</w>": 5519,
      "逼</w>": 5520,
      "矿</w>": 5521,
      "妄</w>": 5522,
      "莱</w>": 5523,
      "付</w>": 5524,
      "销</w>": 5525,
      "致</w>": 5526,
      "展</w>": 5527,
      "补</w>": 5528,
      "雷</w>": 5529,
      "绪</w>": 5530,
      "毒</w>": 5531,
      "摩</w>": 5532,
      "帘</w>": 5533,
      "腊</w>": 5534,
      "湖</w>": 5535,
      "电</w>": 5536,
      "酸</w>": 5537,
      "启</w>": 5538,
      "响</w>": 5539,
      "暗</w>": 5540,
      "该</w>": 5541,
      "基</w>": 5542,
      "情</w>": 5543,
      "豆</w>": 5544,
      "招</w>": 5545,
      "章</w>": 5546,
      "窝</w>": 5547,
      "团</w>": 5548,
      "钠</w>": 5549,
      "涨</w>": 5550,
      "掉</w>": 5551,
      "氯</w>": 5552,
      "俩</w>": 5553,
      "觉</w>": 5554,
      "词</w>": 5555,
      "针</w>": 5556,
      "汁</w>": 5557,
      "游</w>": 5558,
      "举</w>": 5559,
      "卸</w>": 5560,
      "般</w>": 5561,
      "曼</w>": 5562,
      "瓶</w>": 5563,
      "美</w>": 5564,
      "浸</w>": 5565,
      "眼</w>": 5566,
      "受</w>": 5567,
      "达</w>": 5568,
      "办</w>": 5569,
      "早</w>": 5570,
      "形</w>": 5571,
      "堂</w>": 5572,
      "剑</w>": 5573,
      "工</w>": 5574,
      "春</w>": 5575,
      "寇</w>": 5576,
      "沿</w>": 5577,
      "胎</w>": 5578,
      "责</w>": 5579,
      "骨</w>": 5580,
      "品</w>": 5581,
      "缪</w>": 5582,
      "候</w>": 5583,
      "据</w>": 5584,
      "伊</w>": 5585,
      "好</w>": 5586,
      "仇</w>": 5587,
      "如</w>": 5588,
      "村</w>": 5589,
      "革</w>": 5590,
      "赔</w>": 5591,
      "妈</w>": 5592,
      "培</w>": 5593,
      "痛</w>": 5594,
      "盒</w>": 5595,
      "母</w>": 5596,
      "民</w>": 5597,
      "泼</w>": 5598,
      "挫</w>": 5599,
      "押</w>": 5600,
      "记</w>": 5601,
      "真</w>": 5602,
      "强</w>": 5603,
      "星</w>": 5604,
      "雪</w>": 5605,
      "围</w>": 5606,
      "妹</w>": 5607,
      "痴</w>": 5608,
      "壮</w>": 5609,
      "超</w>": 5610,
      "便</w>": 5611,
      "铃</w>": 5612,
      "解</w>": 5613,
      "割</w>": 5614,
      "喷</w>": 5615,
      "Q</w>": 5616,
      "警</w>": 5617,
      "忠</w>": 5618,
      "贴</w>": 5619,
      "栅</w>": 5620,
      "仓</w>": 5621,
      "宗</w>": 5622,
      "儿</w>": 5623,
      "琪</w>": 5624,
      "丰</w>": 5625,
      "勋</w>": 5626,
      "徒</w>": 5627,
      "乳</w>": 5628,
      "照</w>": 5629,
      "幻</w>": 5630,
      "界</w>": 5631,
      "布</w>": 5632,
      "评</w>": 5633,
      "坎</w>": 5634,
      "打</w>": 5635,
      "控</w>": 5636,
      "艺</w>": 5637,
      "砚</w>": 5638,
      "辰</w>": 5639,
      "翔</w>": 5640,
      "蕾</w>": 5641,
      "火</w>": 5642,
      "酚</w>": 5643,
      "泫</w>": 5644,
      "悻</w>": 5645,
      "散</w>": 5646,
      "设</w>": 5647,
      "湾</w>": 5648,
      "驼</w>": 5649,
      "田</w>": 5650,
      "他</w>": 5651,
      "胸</w>": 5652,
      "苏</w>": 5653,
      "忙</w>": 5654,
      "分</w>": 5655,
      "茶</w>": 5656,
      "冕</w>": 5657,
      "扬</w>": 5658,
      "建</w>": 5659,
      "闻</w>": 5660,
      "己</w>": 5661,
      "怪</w>": 5662,
      "几</w>": 5663,
      "峰</w>": 5664,
      "珠</w>": 5665,
      "麦</w>": 5666,
      "短</w>": 5667,
      "抹</w>": 5668,
      "窃</w>": 5669,
      "乾</w>": 5670,
      "座</w>": 5671,
      "无</w>": 5672,
      "派</w>": 5673,
      "坐</w>": 5674,
      "切</w>": 5675,
      "友</w>": 5676,
      "谈</w>": 5677,
      "撞</w>": 5678,
      "锦</w>": 5679,
      "翼</w>": 5680,
      "乎</w>": 5681,
      "先</w>": 5682,
      "少</w>": 5683,
      "久</w>": 5684,
      "阶</w>": 5685,
      "慢</w>": 5686,
      "瘦</w>": 5687,
      "伴</w>": 5688,
      "互</w>": 5689,
      "元</w>": 5690,
      "仁</w>": 5691,
      "乱</w>": 5692,
      "调</w>": 5693,
      "炸</w>": 5694,
      "势</w>": 5695,
      "底</w>": 5696,
      "婷</w>": 5697,
      "撑</w>": 5698,
      "政</w>": 5699,
      "刊</w>": 5700,
      "佬</w>": 5701,
      "薪</w>": 5702,
      "碗</w>": 5703,
      "厘</w>": 5704,
      "铲</w>": 5705,
      "惠</w>": 5706,
      "柏</w>": 5707,
      "集</w>": 5708,
      "龙</w>": 5709,
      "楚</w>": 5710,
      "智</w>": 5711,
      "Z</w>": 5712,
      "摆</w>": 5713,
      "原</w>": 5714,
      "茜</w>": 5715,
      "将</w>": 5716,
      "汤</w>": 5717,
      "栽</w>": 5718,
      "腹</w>": 5719,
      "蝉</w>": 5720,
      "沙</w>": 5721,
      "简</w>": 5722,
      "概</w>": 5723,
      "锭</w>": 5724,
      "孩</w>": 5725,
      "住</w>": 5726,
      "税</w>": 5727,
      "掘</w>": 5728,
      "鬼</w>": 5729,
      "豪</w>": 5730,
      "击</w>": 5731,
      "临</w>": 5732,
      "堵</w>": 5733,
      "膝</w>": 5734,
      "红</w>": 5735,
      "贝</w>": 5736,
      "妙</w>": 5737,
      "测</w>": 5738,
      "淡</w>": 5739,
      "资</w>": 5740,
      "都</w>": 5741,
      "兴</w>": 5742,
      "迎</w>": 5743,
      "免</w>": 5744,
      "鸣</w>": 5745,
      "菇</w>": 5746,
      "赶</w>": 5747,
      "韧</w>": 5748,
      "宋</w>": 5749,
      "缩</w>": 5750,
      "表</w>": 5751,
      "冲</w>": 5752,
      "奈</w>": 5753,
      "蜀</w>": 5754,
      "跳</w>": 5755,
      "赴</w>": 5756,
      "靠</w>": 5757,
      "公</w>": 5758,
      "浪</w>": 5759,
      "二</w>": 5760,
      "猪</w>": 5761,
      "图</w>": 5762,
      "勺</w>": 5763,
      "财</w>": 5764,
      "血</w>": 5765,
      "白</w>": 5766,
      "聚</w>": 5767,
      "芒</w>": 5768,
      "坑</w>": 5769,
      "桶</w>": 5770,
      "室</w>": 5771,
      "获</w>": 5772,
      "帚</w>": 5773,
      "渡</w>": 5774,
      "授</w>": 5775,
      "耗</w>": 5776,
      "跑</w>": 5777,
      "温</w>": 5778,
      "秀</w>": 5779,
      "邑</w>": 5780,
      "浆</w>": 5781,
      "斐</w>": 5782,
      "速</w>": 5783,
      "途</w>": 5784,
      "甲</w>": 5785,
      "郎</w>": 5786,
      "艇</w>": 5787,
      "难</w>": 5788,
      "疼</w>": 5789,
      "微</w>": 5790,
      "井</w>": 5791,
      "诗</w>": 5792,
      "荒</w>": 5793,
      "党</w>": 5794,
      "谓</w>": 5795,
      "漾</w>": 5796,
      "愿</w>": 5797,
      "唱</w>": 5798,
      "匠</w>": 5799,
      "夺</w>": 5800,
      "心</w>": 5801,
      "守</w>": 5802,
      "奴</w>": 5803,
      "它</w>": 5804,
      "航</w>": 5805,
      "程</w>": 5806,
      "柜</w>": 5807,
      "低</w>": 5808,
      "杀</w>": 5809,
      "幅</w>": 5810,
      "酱</w>": 5811,
      "阱</w>": 5812,
      "钉</w>": 5813,
      "献</w>": 5814,
      "帆</w>": 5815,
      "泪</w>": 5816,
      "扶</w>": 5817,
      "略</w>": 5818,
      "翡</w>": 5819,
      ":</w>": 5820,
      "姓</w>": 5821,
      "遣</w>": 5822,
      "号</w>": 5823,
      "鹫</w>": 5824,
      "坡</w>": 5825,
      "些</w>": 5826,
      "急</w>": 5827,
      "思</w>": 5828,
      "仔</w>": 5829,
      "X</w>": 5830,
      "才</w>": 5831,
      "循</w>": 5832,
      "焰</w>": 5833,
      "尘</w>": 5834,
      "构</w>": 5835,
      "决</w>": 5836,
      "嘶</w>": 5837,
      "膀</w>": 5838,
      "辞</w>": 5839,
      "绝</w>": 5840,
      "睐</w>": 5841,
      "绍</w>": 5842,
      "苗</w>": 5843,
      "绿</w>": 5844,
      "盟</w>": 5845,
      "旅</w>": 5846,
      "射</w>": 5847,
      "纯</w>": 5848,
      "簇</w>": 5849,
      "闹</w>": 5850,
      "转</w>": 5851,
      "至</w>": 5852,
      "腮</w>": 5853,
      "眠</w>": 5854,
      "骋</w>": 5855,
      "剩</w>": 5856,
      "挑</w>": 5857,
      "距</w>": 5858,
      "聊</w>": 5859,
      "越</w>": 5860,
      "莎</w>": 5861,
      "蛮</w>": 5862,
      "遭</w>": 5863,
      "役</w>": 5864,
      "舍</w>": 5865,
      "澳</w>": 5866,
      "俗</w>": 5867,
      "焊</w>": 5868,
      "季</w>": 5869,
      "迈</w>": 5870,
      "墓</w>": 5871,
      "做</w>": 5872,
      "蛇</w>": 5873,
      "盔</w>": 5874,
      "钟</w>": 5875,
      "享</w>": 5876,
      "劲</w>": 5877,
      ".</w>": 5878,
      "韦</w>": 5879,
      "怨</w>": 5880,
      "桔</w>": 5881,
      "颜</w>": 5882,
      "跌</w>": 5883,
      "莲</w>": 5884,
      "攻</w>": 5885,
      "轩</w>": 5886,
      "辣</w>": 5887,
      "迷</w>": 5888,
      "订</w>": 5889,
      "半</w>": 5890,
      "顿</w>": 5891,
      "滞</w>": 5892,
      "焦</w>": 5893,
      "杵</w>": 5894,
      "足</w>": 5895,
      "固</w>": 5896,
      "戾</w>": 5897,
      "腺</w>": 5898,
      "姆</w>": 5899,
      "委</w>": 5900,
      "压</w>": 5901,
      "阻</w>": 5902,
      "快</w>": 5903,
      "裁</w>": 5904,
      "巧</w>": 5905,
      "饮</w>": 5906,
      "滩</w>": 5907,
      "滨</w>": 5908,
      "留</w>": 5909,
      "稿</w>": 5910,
      "融</w>": 5911,
      "庚</w>": 5912,
      "痕</w>": 5913,
      "驾</w>": 5914,
      "否</w>": 5915,
      "琦</w>": 5916,
      "敏</w>": 5917,
      "址</w>": 5918,
      "珀</w>": 5919,
      "暂</w>": 5920,
      "栗</w>": 5921,
      "什</w>": 5922,
      "镜</w>": 5923,
      "叫</w>": 5924,
      "庆</w>": 5925,
      "灯</w>": 5926,
      "肉</w>": 5927,
      "煤</w>": 5928,
      "客</w>": 5929,
      "环</w>": 5930,
      "浦</w>": 5931,
      "仪</w>": 5932,
      "畅</w>": 5933,
      "菲</w>": 5934,
      "晒</w>": 5935,
      "祸</w>": 5936,
      "胡</w>": 5937,
      "苑</w>": 5938,
      "寂</w>": 5939,
      "仑</w>": 5940,
      "檐</w>": 5941,
      "赫</w>": 5942,
      "床</w>": 5943,
      "浮</w>": 5944,
      "馆</w>": 5945,
      "圭</w>": 5946,
      "俏</w>": 5947,
      "抗</w>": 5948,
      "笨</w>": 5949,
      "涵</w>": 5950,
      "意</w>": 5951,
      "忘</w>": 5952,
      "醇</w>": 5953,
      "埃</w>": 5954,
      "恶</w>": 5955,
      "趟</w>": 5956,
      "慎</w>": 5957,
      "祀</w>": 5958,
      "寝</w>": 5959,
      "鲜</w>": 5960,
      "兽</w>": 5961,
      "夕</w>": 5962,
      "播</w>": 5963,
      "悄</w>": 5964,
      "借</w>": 5965,
      "紧</w>": 5966,
      "旦</w>": 5967,
      "幼</w>": 5968,
      "喀</w>": 5969,
      "予</w>": 5970,
      "娃</w>": 5971,
      "槽</w>": 5972,
      "累</w>": 5973,
      "复</w>": 5974,
      "饰</w>": 5975,
      "缝</w>": 5976,
      "贩</w>": 5977,
      "醋</w>": 5978,
      "扣</w>": 5979,
      "司</w>": 5980,
      "瓜</w>": 5981,
      "名</w>": 5982,
      "顺</w>": 5983,
      "筏</w>": 5984,
      "卢</w>": 5985,
      "引</w>": 5986,
      "戏</w>": 5987,
      "弟</w>": 5988,
      "帖</w>": 5989,
      "梁</w>": 5990,
      "弦</w>": 5991,
      "放</w>": 5992,
      "寺</w>": 5993,
      "社</w>": 5994,
      "挺</w>": 5995,
      "捐</w>": 5996,
      "绕</w>": 5997,
      "润</w>": 5998,
      "怀</w>": 5999,
      "初</w>": 6000,
      "佛</w>": 6001,
      "拟</w>": 6002,
      "坏</w>": 6003,
      "烤</w>": 6004,
      "杠</w>": 6005,
      "逸</w>": 6006,
      "画</w>": 6007,
      "振</w>": 6008,
      "崎</w>": 6009,
      "篷</w>": 6010,
      "厌</w>": 6011,
      "闭</w>": 6012,
      "跃</w>": 6013,
      "联</w>": 6014,
      "绚</w>": 6015,
      "泰</w>": 6016,
      "课</w>": 6017,
      "十</w>": 6018,
      "卖</w>": 6019,
      "李</w>": 6020,
      "妨</w>": 6021,
      "署</w>": 6022,
      "古</w>": 6023,
      "然</w>": 6024,
      "蜒</w>": 6025,
      "传</w>": 6026,
      "篇</w>": 6027,
      "覆</w>": 6028,
      "注</w>": 6029,
      "穴</w>": 6030,
      "鞍</w>": 6031,
      "钻</w>": 6032,
      "共</w>": 6033,
      "已</w>": 6034,
      "兄</w>": 6035,
      "奶</w>": 6036,
      "音</w>": 6037,
      "舵</w>": 6038,
      "野</w>": 6039,
      "骑</w>": 6040,
      "叙</w>": 6041,
      "溢</w>": 6042,
      "迹</w>": 6043,
      "篮</w>": 6044,
      "虚</w>": 6045,
      "跋</w>": 6046,
      "岭</w>": 6047,
      "硅</w>": 6048,
      "眺</w>": 6049,
      "脱</w>": 6050,
      "莽</w>": 6051,
      "涌</w>": 6052,
      "桂</w>": 6053,
      "须</w>": 6054,
      "休</w>": 6055,
      "笼</w>": 6056,
      "竿</w>": 6057,
      "随</w>": 6058,
      "吨</w>": 6059,
      "溃</w>": 6060,
      "贵</w>": 6061,
      "负</w>": 6062,
      "服</w>": 6063,
      "脂</w>": 6064,
      "瘾</w>": 6065,
      "劳</w>": 6066,
      "椅</w>": 6067,
      "唆</w>": 6068,
      "彦</w>": 6069,
      "衡</w>": 6070,
      "预</w>": 6071,
      "键</w>": 6072,
      "禅</w>": 6073,
      "臂</w>": 6074,
      "筝</w>": 6075,
      "洲</w>": 6076,
      "扁</w>": 6077,
      "婧</w>": 6078,
      "问</w>": 6079,
      "蓬</w>": 6080,
      "菁</w>": 6081,
      "材</w>": 6082,
      "依</w>": 6083,
      "燎</w>": 6084,
      "弃</w>": 6085,
      "衲</w>": 6086,
      "玉</w>": 6087,
      "龄</w>": 6088,
      "的</w>": 6089,
      "朽</w>": 6090,
      "蚀</w>": 6091,
      "坪</w>": 6092,
      "盾</w>": 6093,
      "甫</w>": 6094,
      "消</w>": 6095,
      "窍</w>": 6096,
      "苇</w>": 6097,
      "挡</w>": 6098,
      "憨</w>": 6099,
      "含</w>": 6100,
      "弄</w>": 6101,
      "哥</w>": 6102,
      "瑛</w>": 6103,
      "缴</w>": 6104,
      "老</w>": 6105,
      "巫</w>": 6106,
      "链</w>": 6107,
      "恨</w>": 6108,
      "彩</w>": 6109,
      "丑</w>": 6110,
      "凭</w>": 6111,
      "倍</w>": 6112,
      "鼓</w>": 6113,
      "壁</w>": 6114,
      "战</w>": 6115,
      "亭</w>": 6116,
      "而</w>": 6117,
      "遇</w>": 6118,
      "编</w>": 6119,
      "趣</w>": 6120,
      "拨</w>": 6121,
      "噜</w>": 6122,
      "毁</w>": 6123,
      "垄</w>": 6124,
      "萦</w>": 6125,
      "爱</w>": 6126,
      "婆</w>": 6127,
      "胶</w>": 6128,
      "猴</w>": 6129,
      "答</w>": 6130,
      "块</w>": 6131,
      "望</w>": 6132,
      "裂</w>": 6133,
      "轴</w>": 6134,
      "买</w>": 6135,
      "伸</w>": 6136,
      "够</w>": 6137,
      "瘤</w>": 6138,
      "猿</w>": 6139,
      "铝</w>": 6140,
      "摊</w>": 6141,
      "刑</w>": 6142,
      "朔</w>": 6143,
      "锅</w>": 6144,
      "佳</w>": 6145,
      "龟</w>": 6146,
      "试</w>": 6147,
      "目</w>": 6148,
      "怯</w>": 6149,
      "胜</w>": 6150,
      "斤</w>": 6151,
      "晴</w>": 6152,
      "捷</w>": 6153,
      "届</w>": 6154,
      "止</w>": 6155,
      "则</w>": 6156,
      "秘</w>": 6157,
      "连</w>": 6158,
      "卵</w>": 6159,
      "顾</w>": 6160,
      "肤</w>": 6161,
      "热</w>": 6162,
      "渣</w>": 6163,
      "影</w>": 6164,
      "葵</w>": 6165,
      "夜</w>": 6166,
      "纤</w>": 6167,
      "汉</w>": 6168,
      "膏</w>": 6169,
      "运</w>": 6170,
      "纲</w>": 6171,
      "察</w>": 6172,
      "背</w>": 6173,
      "霜</w>": 6174,
      "莘</w>": 6175,
      "溅</w>": 6176,
      "坚</w>": 6177,
      "周</w>": 6178,
      "鞘</w>": 6179,
      "沼</w>": 6180,
      "缓</w>": 6181,
      "粮</w>": 6182,
      "迭</w>": 6183,
      "页</w>": 6184,
      "夏</w>": 6185,
      "凹</w>": 6186,
      "寒</w>": 6187,
      "盘</w>": 6188,
      "往</w>": 6189,
      "踏</w>": 6190,
      "窄</w>": 6191,
      "充</w>": 6192,
      "毕</w>": 6193,
      "裳</w>": 6194,
      "扈</w>": 6195,
      "写</w>": 6196,
      "之</w>": 6197,
      "谊</w>": 6198,
      "封</w>": 6199,
      "奔</w>": 6200,
      "丸</w>": 6201,
      "修</w>": 6202,
      "舌</w>": 6203,
      "丛</w>": 6204,
      "耀</w>": 6205,
      "翰</w>": 6206,
      "陀</w>": 6207,
      "尚</w>": 6208,
      "肢</w>": 6209,
      "鸽</w>": 6210,
      "召</w>": 6211,
      "校</w>": 6212,
      "童</w>": 6213,
      "喻</w>": 6214,
      "疮</w>": 6215,
      "刻</w>": 6216,
      "述</w>": 6217,
      "孙</w>": 6218,
      "厚</w>": 6219,
      "灾</w>": 6220,
      "弯</w>": 6221,
      "川</w>": 6222,
      "并</w>": 6223,
      "黛</w>": 6224,
      "伯</w>": 6225,
      "希</w>": 6226,
      "泻</w>": 6227,
      "鸿</w>": 6228,
      "晖</w>": 6229,
      "泛</w>": 6230,
      "浊</w>": 6231,
      "犁</w>": 6232,
      "毛</w>": 6233,
      "驴</w>": 6234,
      "饭</w>": 6235,
      "亨</w>": 6236,
      "耳</w>": 6237,
      "准</w>": 6238,
      "裕</w>": 6239,
      "函</w>": 6240,
      "斜</w>": 6241,
      "湿</w>": 6242,
      "存</w>": 6243,
      "矮</w>": 6244,
      "卒</w>": 6245,
      "鲁</w>": 6246,
      "厢</w>": 6247,
      "唤</w>": 6248,
      "鹿</w>": 6249,
      "积</w>": 6250,
      "颌</w>": 6251,
      "污</w>": 6252,
      "减</w>": 6253,
      "戴</w>": 6254,
      "殿</w>": 6255,
      "适</w>": 6256,
      "退</w>": 6257,
      "京</w>": 6258,
      "笛</w>": 6259,
      "伞</w>": 6260,
      "洗</w>": 6261,
      "舟</w>": 6262,
      "笔</w>": 6263,
      "践</w>": 6264,
      "拜</w>": 6265,
      "饶</w>": 6266,
      "鹅</w>": 6267,
      "贺</w>": 6268,
      "芯</w>": 6269,
      "亡</w>": 6270,
      "馥</w>": 6271,
      "阁</w>": 6272,
      "蕴</w>": 6273,
      "肾</w>": 6274,
      "疵</w>": 6275,
      "瓷</w>": 6276,
      "逊</w>": 6277,
      "驳</w>": 6278,
      "深</w>": 6279,
      "弗</w>": 6280,
      "磁</w>": 6281,
      "返</w>": 6282,
      "蕊</w>": 6283,
      "愁</w>": 6284,
      "胞</w>": 6285,
      "糕</w>": 6286,
      "研</w>": 6287,
      "叉</w>": 6288,
      "鸡</w>": 6289,
      "鼠</w>": 6290,
      "六</w>": 6291,
      "盗</w>": 6292,
      "谁</w>": 6293,
      "悖</w>": 6294,
      "廉</w>": 6295,
      "桌</w>": 6296,
      "峡</w>": 6297,
      "擦</w>": 6298,
      "蝶</w>": 6299,
      "卫</w>": 6300,
      "移</w>": 6301,
      "鄙</w>": 6302,
      "职</w>": 6303,
      "葛</w>": 6304,
      "漠</w>": 6305,
      "介</w>": 6306,
      "慕</w>": 6307,
      "械</w>": 6308,
      "走</w>": 6309,
      "丘</w>": 6310,
      "熠</w>": 6311,
      "靓</w>": 6312,
      "横</w>": 6313,
      "识</w>": 6314,
      "铺</w>": 6315,
      "续</w>": 6316,
      "栏</w>": 6317,
      "滴</w>": 6318,
      "倒</w>": 6319,
      "逆</w>": 6320,
      "嚎</w>": 6321,
      "佑</w>": 6322,
      "拌</w>": 6323,
      "瓣</w>": 6324,
      "蜂</w>": 6325,
      "疗</w>": 6326,
      "愤</w>": 6327,
      "楠</w>": 6328,
      "薇</w>": 6329,
      "跨</w>": 6330,
      "境</w>": 6331,
      "衣</w>": 6332,
      "犬</w>": 6333,
      "勾</w>": 6334,
      "哲</w>": 6335,
      "磨</w>": 6336,
      "籁</w>": 6337,
      "敛</w>": 6338,
      "圣</w>": 6339,
      "诈</w>": 6340,
      "悟</w>": 6341,
      "肝</w>": 6342,
      "惧</w>": 6343,
      "喘</w>": 6344,
      "抵</w>": 6345,
      "瞳</w>": 6346,
      "匙</w>": 6347,
      "潦</w>": 6348,
      "扎</w>": 6349,
      "韵</w>": 6350,
      "艳</w>": 6351,
      "垢</w>": 6352,
      "焙</w>": 6353,
      "繁</w>": 6354,
      "雕</w>": 6355,
      "纽</w>": 6356,
      "朋</w>": 6357,
      "涛</w>": 6358,
      "鲸</w>": 6359,
      "绒</w>": 6360,
      "寿</w>": 6361,
      "懂</w>": 6362,
      "唠</w>": 6363,
      "企</w>": 6364,
      "痹</w>": 6365,
      "禁</w>": 6366,
      "雉</w>": 6367,
      "雍</w>": 6368,
      "羁</w>": 6369,
      "嚓</w>": 6370,
      "荷</w>": 6371,
      "恒</w>": 6372,
      "伏</w>": 6373,
      "男</w>": 6374,
      "碎</w>": 6375,
      "陈</w>": 6376,
      "我</w>": 6377,
      "灼</w>": 6378,
      "屏</w>": 6379,
      "扮</w>": 6380,
      "木</w>": 6381,
      "冷</w>": 6382,
      "恬</w>": 6383,
      "衬</w>": 6384,
      "轻</w>": 6385,
      "J</w>": 6386,
      "抱</w>": 6387,
      "黑</w>": 6388,
      "埠</w>": 6389,
      "闲</w>": 6390,
      "募</w>": 6391,
      "扰</w>": 6392,
      "赎</w>": 6393,
      "牙</w>": 6394,
      "迅</w>": 6395,
      "股</w>": 6396,
      "姿</w>": 6397,
      "羔</w>": 6398,
      "祝</w>": 6399,
      "簿</w>": 6400,
      "壶</w>": 6401,
      "今</w>": 6402,
      "皱</w>": 6403,
      "挥</w>": 6404,
      "垃</w>": 6405,
      "撒</w>": 6406,
      "逃</w>": 6407,
      "呢</w>": 6408,
      "细</w>": 6409,
      "堪</w>": 6410,
      "取</w>": 6411,
      "霆</w>": 6412,
      "畏</w>": 6413,
      "殆</w>": 6414,
      "爽</w>": 6415,
      "右</w>": 6416,
      "末</w>": 6417,
      "馈</w>": 6418,
      "努</w>": 6419,
      "碍</w>": 6420,
      "茵</w>": 6421,
      "刷</w>": 6422,
      "悯</w>": 6423,
      "冰</w>": 6424,
      "熨</w>": 6425,
      "旱</w>": 6426,
      "挠</w>": 6427,
      "纶</w>": 6428,
      "廓</w>": 6429,
      "辆</w>": 6430,
      "属</w>": 6431,
      "辑</w>": 6432,
      "乖</w>": 6433,
      "戒</w>": 6434,
      "颗</w>": 6435,
      "罩</w>": 6436,
      "狼</w>": 6437,
      "咒</w>": 6438,
      "逐</w>": 6439,
      "除</w>": 6440,
      "虎</w>": 6441,
      "窗</w>": 6442,
      "渠</w>": 6443,
      "伺</w>": 6444,
      "归</w>": 6445,
      "添</w>": 6446,
      "搓</w>": 6447,
      "傅</w>": 6448,
      "疡</w>": 6449,
      "访</w>": 6450,
      "盐</w>": 6451,
      "奸</w>": 6452,
      "载</w>": 6453,
      "锐</w>": 6454,
      "礁</w>": 6455,
      "鹄</w>": 6456,
      "叠</w>": 6457,
      "锥</w>": 6458,
      "宿</w>": 6459,
      "窦</w>": 6460,
      "例</w>": 6461,
      "严</w>": 6462,
      "怡</w>": 6463,
      "霍</w>": 6464,
      "尧</w>": 6465,
      "祷</w>": 6466,
      "誓</w>": 6467,
      "检</w>": 6468,
      "腰</w>": 6469,
      "鉴</w>": 6470,
      "吻</w>": 6471,
      "湃</w>": 6472,
      "箍</w>": 6473,
      "批</w>": 6474,
      "胀</w>": 6475,
      "耍</w>": 6476,
      "稳</w>": 6477,
      "占</w>": 6478,
      "衰</w>": 6479,
      "褥</w>": 6480,
      "棠</w>": 6481,
      "雯</w>": 6482,
      "咽</w>": 6483,
      "沫</w>": 6484,
      "亘</w>": 6485,
      "耻</w>": 6486,
      "盆</w>": 6487,
      "贫</w>": 6488,
      "吭</w>": 6489,
      "佩</w>": 6490,
      "和</w>": 6491,
      "籽</w>": 6492,
      "幕</w>": 6493,
      "北</w>": 6494,
      "搏</w>": 6495,
      "现</w>": 6496,
      "滑</w>": 6497,
      "捕</w>": 6498,
      "乔</w>": 6499,
      "喉</w>": 6500,
      "锋</w>": 6501,
      "策</w>": 6502,
      "斑</w>": 6503,
      "挛</w>": 6504,
      "兆</w>": 6505,
      "陆</w>": 6506,
      "析</w>": 6507,
      "腑</w>": 6508,
      "匀</w>": 6509,
      "梭</w>": 6510,
      "隔</w>": 6511,
      "父</w>": 6512,
      "沂</w>": 6513,
      "么</w>": 6514,
      "洽</w>": 6515,
      "侨</w>": 6516,
      "囱</w>": 6517,
      "袍</w>": 6518,
      "娱</w>": 6519,
      "某</w>": 6520,
      "慈</w>": 6521,
      "惑</w>": 6522,
      "佐</w>": 6523,
      "席</w>": 6524,
      "赌</w>": 6525,
      "磺</w>": 6526,
      "壳</w>": 6527,
      "徽</w>": 6528,
      "了</w>": 6529,
      "软</w>": 6530,
      "郡</w>": 6531,
      "搁</w>": 6532,
      "抖</w>": 6533,
      "荡</w>": 6534,
      "芹</w>": 6535,
      "盏</w>": 6536,
      "揣</w>": 6537,
      "廊</w>": 6538,
      "磬</w>": 6539,
      "宇</w>": 6540,
      "孝</w>": 6541,
      "菊</w>": 6542,
      "衔</w>": 6543,
      "烫</w>": 6544,
      "莫</w>": 6545,
      "咧</w>": 6546,
      "吒</w>": 6547,
      "苞</w>": 6548,
      "忍</w>": 6549,
      "履</w>": 6550,
      "认</w>": 6551,
      "汗</w>": 6552,
      "璐</w>": 6553,
      "送</w>": 6554,
      "薯</w>": 6555,
      "妓</w>": 6556,
      "锻</w>": 6557,
      "亿</w>": 6558,
      "蔷</w>": 6559,
      "旁</w>": 6560,
      "妞</w>": 6561,
      "护</w>": 6562,
      "稽</w>": 6563,
      "绵</w>": 6564,
      "恳</w>": 6565,
      "甘</w>": 6566,
      "棚</w>": 6567,
      "遗</w>": 6568,
      "监</w>": 6569,
      "详</w>": 6570,
      "昆</w>": 6571,
      "旺</w>": 6572,
      "等</w>": 6573,
      "疫</w>": 6574,
      "败</w>": 6575,
      "牒</w>": 6576,
      "浩</w>": 6577,
      "释</w>": 6578,
      "噪</w>": 6579,
      "喝</w>": 6580,
      "尾</w>": 6581,
      "溜</w>": 6582,
      "惯</w>": 6583,
      "寨</w>": 6584,
      "崽</w>": 6585,
      "叁</w>": 6586,
      "嘀</w>": 6587,
      "晦</w>": 6588,
      "茅</w>": 6589,
      "私</w>": 6590,
      "洼</w>": 6591,
      "睿</w>": 6592,
      "昼</w>": 6593,
      "妥</w>": 6594,
      "姣</w>": 6595,
      "郑</w>": 6596,
      "剧</w>": 6597,
      "埔</w>": 6598,
      "吾</w>": 6599,
      "墩</w>": 6600,
      "筋</w>": 6601,
      "挂</w>": 6602,
      "酷</w>": 6603,
      "俊</w>": 6604,
      "霞</w>": 6605,
      "扇</w>": 6606,
      "烟</w>": 6607,
      "舞</w>": 6608,
      "拒</w>": 6609,
      "况</w>": 6610,
      "江</w>": 6611,
      "锈</w>": 6612,
      "戟</w>": 6613,
      "婉</w>": 6614,
      "洁</w>": 6615,
      "钗</w>": 6616,
      "阿</w>": 6617,
      "寄</w>": 6618,
      "釉</w>": 6619,
      "\"</w>": 6620,
      "裙</w>": 6621,
      "氛</w>": 6622,
      "棍</w>": 6623,
      "蚌</w>": 6624,
      "牢</w>": 6625,
      "孟</w>": 6626,
      "裘</w>": 6627,
      "捆</w>": 6628,
      "芋</w>": 6629,
      "冢</w>": 6630,
      "骏</w>": 6631,
      "腕</w>": 6632,
      "伍</w>": 6633,
      "指</w>": 6634,
      "苒</w>": 6635,
      "燕</w>": 6636,
      "豹</w>": 6637,
      "宜</w>": 6638,
      "朗</w>": 6639,
      "辱</w>": 6640,
      "峭</w>": 6641,
      "妇</w>": 6642,
      "狠</w>": 6643,
      "偷</w>": 6644,
      "券</w>": 6645,
      "择</w>": 6646,
      "缸</w>": 6647,
      "坊</w>": 6648,
      "冬</w>": 6649,
      "毅</w>": 6650,
      "绸</w>": 6651,
      "听</w>": 6652,
      "寡</w>": 6653,
      "若</w>": 6654,
      "萝</w>": 6655,
      "丈</w>": 6656,
      "哒</w>": 6657,
      "?</w>": 6658,
      "贸</w>": 6659,
      "那</w>": 6660,
      "惊</w>": 6661,
      "颚</w>": 6662,
      "登</w>": 6663,
      "宽</w>": 6664,
      "浑</w>": 6665,
      "透</w>": 6666,
      "偎</w>": 6667,
      "诵</w>": 6668,
      "獒</w>": 6669,
      "贱</w>": 6670,
      "耕</w>": 6671,
      "售</w>": 6672,
      "穗</w>": 6673,
      "涟</w>": 6674,
      "钮</w>": 6675,
      "佣</w>": 6676,
      "恰</w>": 6677,
      "盼</w>": 6678,
      "励</w>": 6679,
      "焕</w>": 6680,
      "诫</w>": 6681,
      "被</w>": 6682,
      "娇</w>": 6683,
      "香</w>": 6684,
      "舔</w>": 6685,
      "霄</w>": 6686,
      "骛</w>": 6687,
      "沌</w>": 6688,
      "审</w>": 6689,
      "征</w>": 6690,
      "敬</w>": 6691,
      "兮</w>": 6692,
      "咎</w>": 6693,
      "缠</w>": 6694,
      "峨</w>": 6695,
      "拱</w>": 6696,
      "恋</w>": 6697,
      "晰</w>": 6698,
      "侄</w>": 6699,
      "兑</w>": 6700,
      "淋</w>": 6701,
      "啃</w>": 6702,
      "殖</w>": 6703,
      "汇</w>": 6704,
      "甜</w>": 6705,
      "窟</w>": 6706,
      "傲</w>": 6707,
      "噬</w>": 6708,
      "塌</w>": 6709,
      "涂</w>": 6710,
      "糠</w>": 6711,
      "讷</w>": 6712,
      "馨</w>": 6713,
      "厅</w>": 6714,
      "仗</w>": 6715,
      "哉</w>": 6716,
      "坯</w>": 6717,
      "竹</w>": 6718,
      "签</w>": 6719,
      "梳</w>": 6720,
      "尺</w>": 6721,
      "驰</w>": 6722,
      "旭</w>": 6723,
      "陶</w>": 6724,
      "缀</w>": 6725,
      "丧</w>": 6726,
      "幂</w>": 6727,
      "探</w>": 6728,
      "蜡</w>": 6729,
      "贡</w>": 6730,
      "茬</w>": 6731,
      "笠</w>": 6732,
      "苔</w>": 6733,
      "括</w>": 6734,
      "臣</w>": 6735,
      "膳</w>": 6736,
      "沸</w>": 6737,
      "宾</w>": 6738,
      "仕</w>": 6739,
      ",</w>": 6740,
      "掌</w>": 6741,
      "炽</w>": 6742,
      "猛</w>": 6743,
      "棉</w>": 6744,
      "俨</w>": 6745,
      "尹</w>": 6746,
      "辈</w>": 6747,
      "赠</w>": 6748,
      "渊</w>": 6749,
      "晨</w>": 6750,
      "把</w>": 6751,
      "桦</w>": 6752,
      "帐</w>": 6753,
      "姬</w>": 6754,
      "蔫</w>": 6755,
      "僵</w>": 6756,
      "悼</w>": 6757,
      "倚</w>": 6758,
      "障</w>": 6759,
      "絮</w>": 6760,
      "滕</w>": 6761,
      "虐</w>": 6762,
      "诧</w>": 6763,
      "饿</w>": 6764,
      "仰</w>": 6765,
      "优</w>": 6766,
      "永</w>": 6767,
      "范</w>": 6768,
      "究</w>": 6769,
      "佗</w>": 6770,
      "帽</w>": 6771,
      "珍</w>": 6772,
      "秤</w>": 6773,
      "磐</w>": 6774,
      "瑜</w>": 6775,
      "鞭</w>": 6776,
      "驱</w>": 6777,
      "壹</w>": 6778,
      "孕</w>": 6779,
      "钰</w>": 6780,
      "奋</w>": 6781,
      "卧</w>": 6782,
      "啸</w>": 6783,
      "投</w>": 6784,
      "耷</w>": 6785,
      "辩</w>": 6786,
      "纬</w>": 6787,
      "疑</w>": 6788,
      "茗</w>": 6789,
      "骗</w>": 6790,
      "棋</w>": 6791,
      "潘</w>": 6792,
      "绩</w>": 6793,
      "魏</w>": 6794,
      "荞</w>": 6795,
      "坠</w>": 6796,
      "洋</w>": 6797,
      "紫</w>": 6798,
      "臀</w>": 6799,
      "羞</w>": 6800,
      "眉</w>": 6801,
      "捏</w>": 6802,
      "摄</w>": 6803,
      "睛</w>": 6804,
      "亲</w>": 6805,
      "啦</w>": 6806,
      "婢</w>": 6807,
      "敲</w>": 6808,
      "九</w>": 6809,
      "洒</w>": 6810,
      "币</w>": 6811,
      "靡</w>": 6812,
      "锡</w>": 6813,
      "柬</w>": 6814,
      "翻</w>": 6815,
      "魁</w>": 6816,
      "醺</w>": 6817,
      "没</w>": 6818,
      "艘</w>": 6819,
      "眷</w>": 6820,
      "卉</w>": 6821,
      "贤</w>": 6822,
      "剖</w>": 6823,
      "衫</w>": 6824,
      "囚</w>": 6825,
      "忌</w>": 6826,
      "屎</w>": 6827,
      "杨</w>": 6828,
      "炮</w>": 6829,
      "捉</w>": 6830,
      "拥</w>": 6831,
      "措</w>": 6832,
      "蝇</w>": 6833,
      "柄</w>": 6834,
      "震</w>": 6835,
      "翁</w>": 6836,
      "栖</w>": 6837,
      "豫</w>": 6838,
      "窜</w>": 6839,
      "彼</w>": 6840,
      "剪</w>": 6841,
      "咀</w>": 6842,
      "帜</w>": 6843,
      "壕</w>": 6844,
      "劣</w>": 6845,
      "枢</w>": 6846,
      "闷</w>": 6847,
      "晓</w>": 6848,
      "蔗</w>": 6849,
      "躯</w>": 6850,
      "霸</w>": 6851,
      "钳</w>": 6852,
      "凛</w>": 6853,
      "渔</w>": 6854,
      "济</w>": 6855,
      "健</w>": 6856,
      ")</w>": 6857,
      "彻</w>": 6858,
      "庭</w>": 6859,
      "螂</w>": 6860,
      "赖</w>": 6861,
      "巡</w>": 6862,
      "狂</w>": 6863,
      "符</w>": 6864,
      "姐</w>": 6865,
      "箭</w>": 6866,
      "堤</w>": 6867,
      "碑</w>": 6868,
      "袜</w>": 6869,
      "渐</w>": 6870,
      "雇</w>": 6871,
      "不</w>": 6872,
      "匿</w>": 6873,
      "异</w>": 6874,
      "脖</w>": 6875,
      "桓</w>": 6876,
      "咸</w>": 6877,
      "蛙</w>": 6878,
      "亩</w>": 6879,
      "虑</w>": 6880,
      "淘</w>": 6881,
      "肠</w>": 6882,
      "烨</w>": 6883,
      "汽</w>": 6884,
      "浓</w>": 6885,
      "肩</w>": 6886,
      "刃</w>": 6887,
      "肿</w>": 6888,
      "稀</w>": 6889,
      "唬</w>": 6890,
      "搅</w>": 6891,
      "娄</w>": 6892,
      "欢</w>": 6893,
      "拳</w>": 6894,
      "尤</w>": 6895,
      "瘀</w>": 6896,
      "谦</w>": 6897,
      "凉</w>": 6898,
      "猎</w>": 6899,
      "槌</w>": 6900,
      "抑</w>": 6901,
      "娣</w>": 6902,
      "娶</w>": 6903,
      "栾</w>": 6904,
      "蜜</w>": 6905,
      "彭</w>": 6906,
      "坛</w>": 6907,
      "涉</w>": 6908,
      "却</w>": 6909,
      "暮</w>": 6910,
      "咬</w>": 6911,
      "痂</w>": 6912,
      "闯</w>": 6913,
      "橄</w>": 6914,
      "坝</w>": 6915,
      "莹</w>": 6916,
      "芮</w>": 6917,
      "冈</w>": 6918,
      "屿</w>": 6919,
      "皂</w>": 6920,
      "妃</w>": 6921,
      "轧</w>": 6922,
      "突</w>": 6923,
      "蹭</w>": 6924,
      "拭</w>": 6925,
      "抚</w>": 6926,
      "伪</w>": 6927,
      "骅</w>": 6928,
      "邮</w>": 6929,
      "反</w>": 6930,
      "谋</w>": 6931,
      "魂</w>": 6932,
      "乓</w>": 6933,
      "撇</w>": 6934,
      "淹</w>": 6935,
      "嘛</w>": 6936,
      "练</w>": 6937,
      "饵</w>": 6938,
      "吧</w>": 6939,
      "迁</w>": 6940,
      "悠</w>": 6941,
      "玺</w>": 6942,
      "僧</w>": 6943,
      "炭</w>": 6944,
      "柴</w>": 6945,
      "仆</w>": 6946,
      "嗝</w>": 6947,
      "刹</w>": 6948,
      "孽</w>": 6949,
      "郊</w>": 6950,
      "鑫</w>": 6951,
      "锵</w>": 6952,
      "邻</w>": 6953,
      "虾</w>": 6954,
      "侯</w>": 6955,
      "蔽</w>": 6956,
      "咯</w>": 6957,
      "帧</w>": 6958,
      "杜</w>": 6959,
      "寻</w>": 6960,
      "歇</w>": 6961,
      "塑</w>": 6962,
      "碟</w>": 6963,
      "爸</w>": 6964,
      "蛾</w>": 6965,
      "槛</w>": 6966,
      "皓</w>": 6967,
      "硬</w>": 6968,
      "嫩</w>": 6969,
      "汀</w>": 6970,
      "陷</w>": 6971,
      "钦</w>": 6972,
      "鸥</w>": 6973,
      "惜</w>": 6974,
      "鹰</w>": 6975,
      "恼</w>": 6976,
      "犹</w>": 6977,
      "悬</w>": 6978,
      "厉</w>": 6979,
      "睡</w>": 6980,
      "螨</w>": 6981,
      "踪</w>": 6982,
      "酬</w>": 6983,
      "觅</w>": 6984,
      "儒</w>": 6985,
      "嗣</w>": 6986,
      "弊</w>": 6987,
      "痰</w>": 6988,
      "荨</w>": 6989,
      "嵌</w>": 6990,
      "焉</w>": 6991,
      "梨</w>": 6992,
      "沛</w>": 6993,
      "鹏</w>": 6994,
      "颅</w>": 6995,
      "羽</w>": 6996,
      "嚏</w>": 6997,
      "冒</w>": 6998,
      "溯</w>": 6999,
      "桐</w>": 7000,
      "惮</w>": 7001,
      "酶</w>": 7002,
      "霖</w>": 7003,
      "隧</w>": 7004,
      "蹄</w>": 7005,
      "晃</w>": 7006,
      "筑</w>": 7007,
      "映</w>": 7008,
      "岗</w>": 7009,
      "描</w>": 7010,
      "谐</w>": 7011,
      "熊</w>": 7012,
      "扫</w>": 7013,
      "汹</w>": 7014,
      "曾</w>": 7015,
      "衍</w>": 7016,
      "矩</w>": 7017,
      "吏</w>": 7018,
      "畜</w>": 7019,
      "撬</w>": 7020,
      "忆</w>": 7021,
      "熔</w>": 7022,
      "唇</w>": 7023,
      "曦</w>": 7024,
      "噶</w>": 7025,
      "绳</w>": 7026,
      "译</w>": 7027,
      "昏</w>": 7028,
      "咕</w>": 7029,
      "碳</w>": 7030,
      "痒</w>": 7031,
      "谕</w>": 7032,
      "涅</w>": 7033,
      "匪</w>": 7034,
      "菱</w>": 7035,
      "梗</w>": 7036,
      "疏</w>": 7037,
      "拐</w>": 7038,
      "锌</w>": 7039,
      "朴</w>": 7040,
      "撤</w>": 7041,
      "跛</w>": 7042,
      "茂</w>": 7043,
      "敷</w>": 7044,
      "秋</w>": 7045,
      "讶</w>": 7046,
      "迟</w>": 7047,
      "苓</w>": 7048,
      "匝</w>": 7049,
      "寰</w>": 7050,
      "爆</w>": 7051,
      "聆</w>": 7052,
      "饱</w>": 7053,
      "捂</w>": 7054,
      "碧</w>": 7055,
      "坟</w>": 7056,
      "愧</w>": 7057,
      "肺</w>": 7058,
      "幢</w>": 7059,
      "尊</w>": 7060,
      "钥</w>": 7061,
      "缆</w>": 7062,
      "嘿</w>": 7063,
      "汪</w>": 7064,
      "卑</w>": 7065,
      "赤</w>": 7066,
      "昔</w>": 7067,
      "截</w>": 7068,
      "炜</w>": 7069,
      "陪</w>": 7070,
      "埋</w>": 7071,
      "禽</w>": 7072,
      "羌</w>": 7073,
      "瞎</w>": 7074,
      "赐</w>": 7075,
      "羹</w>": 7076,
      "曙</w>": 7077,
      "矛</w>": 7078,
      "娼</w>": 7079,
      "侗</w>": 7080,
      "扛</w>": 7081,
      "救</w>": 7082,
      "吱</w>": 7083,
      "粹</w>": 7084,
      "需</w>": 7085,
      "矣</w>": 7086,
      "飒</w>": 7087,
      "阂</w>": 7088,
      "翘</w>": 7089,
      "垂</w>": 7090,
      "恐</w>": 7091,
      "喏</w>": 7092,
      "吩</w>": 7093,
      "侬</w>": 7094,
      "悉</w>": 7095,
      "榻</w>": 7096,
      "暇</w>": 7097,
      "毙</w>": 7098,
      "稠</w>": 7099,
      "趋</w>": 7100,
      "漪</w>": 7101,
      "巢</w>": 7102,
      "泡</w>": 7103,
      "鲱</w>": 7104,
      "贿</w>": 7105,
      "棵</w>": 7106,
      "诊</w>": 7107,
      "臆</w>": 7108,
      "铮</w>": 7109,
      "酌</w>": 7110,
      "窘</w>": 7111,
      "嘎</w>": 7112,
      "糙</w>": 7113,
      "谨</w>": 7114,
      "橱</w>": 7115,
      "妍</w>": 7116,
      "柳</w>": 7117,
      "综</w>": 7118,
      "扩</w>": 7119,
      "确</w>": 7120,
      "绣</w>": 7121,
      "惺</w>": 7122,
      "奉</w>": 7123,
      "疲</w>": 7124,
      "贷</w>": 7125,
      "也</w>": 7126,
      "阔</w>": 7127,
      "还</w>": 7128,
      "禧</w>": 7129,
      "宴</w>": 7130,
      "酿</w>": 7131,
      "唯</w>": 7132,
      "湘</w>": 7133,
      "痘</w>": 7134,
      "珂</w>": 7135,
      "缇</w>": 7136,
      "扯</w>": 7137,
      "怖</w>": 7138,
      "榔</w>": 7139,
      "朵</w>": 7140,
      "臻</w>": 7141,
      "继</w>": 7142,
      "萍</w>": 7143,
      "亏</w>": 7144,
      "怠</w>": 7145,
      "坤</w>": 7146,
      "钙</w>": 7147,
      "檬</w>": 7148,
      "础</w>": 7149,
      "宅</w>": 7150,
      "藤</w>": 7151,
      "氧</w>": 7152,
      "淤</w>": 7153,
      "慰</w>": 7154,
      "痪</w>": 7155,
      "暖</w>": 7156,
      "插</w>": 7157,
      "罕</w>": 7158,
      "诏</w>": 7159,
      "褶</w>": 7160,
      "钓</w>": 7161,
      "膘</w>": 7162,
      "拈</w>": 7163,
      "溺</w>": 7164,
      "削</w>": 7165,
      "御</w>": 7166,
      "终</w>": 7167,
      "镀</w>": 7168,
      "绅</w>": 7169,
      "昭</w>": 7170,
      "昌</w>": 7171,
      "总</w>": 7172,
      "骂</w>": 7173,
      "赵</w>": 7174,
      "伽</w>": 7175,
      "闰</w>": 7176,
      "祠</w>": 7177,
      "您</w>": 7178,
      "箔</w>": 7179,
      "恤</w>": 7180,
      "姨</w>": 7181,
      "镯</w>": 7182,
      "蒜</w>": 7183,
      "蚓</w>": 7184,
      "戎</w>": 7185,
      "怕</w>": 7186,
      "废</w>": 7187,
      "眩</w>": 7188,
      "琢</w>": 7189,
      "痊</w>": 7190,
      "秧</w>": 7191,
      "侮</w>": 7192,
      "瘴</w>": 7193,
      "颖</w>": 7194,
      "垮</w>": 7195,
      "创</w>": 7196,
      "忧</w>": 7197,
      "橘</w>": 7198,
      "斧</w>": 7199,
      "懈</w>": 7200,
      "弘</w>": 7201,
      "骸</w>": 7202,
      "倩</w>": 7203,
      "炖</w>": 7204,
      "悔</w>": 7205,
      "搞</w>": 7206,
      "祭</w>": 7207,
      "诸</w>": 7208,
      "隶</w>": 7209,
      "吁</w>": 7210,
      "伐</w>": 7211,
      "枫</w>": 7212,
      "啤</w>": 7213,
      "屠</w>": 7214,
      "哇</w>": 7215,
      "挤</w>": 7216,
      "毫</w>": 7217,
      "蝎</w>": 7218,
      "纺</w>": 7219,
      "两</w>": 7220,
      "崖</w>": 7221,
      "柯</w>": 7222,
      "阜</w>": 7223,
      "撼</w>": 7224,
      "钞</w>": 7225,
      "贼</w>": 7226,
      "窑</w>": 7227,
      "泣</w>": 7228,
      "桨</w>": 7229,
      "厄</w>": 7230,
      "潭</w>": 7231,
      "铿</w>": 7232,
      "枚</w>": 7233,
      "玫</w>": 7234,
      "掷</w>": 7235,
      "耸</w>": 7236,
      "箫</w>": 7237,
      "娟</w>": 7238,
      "绑</w>": 7239,
      "汐</w>": 7240,
      "鼻</w>": 7241,
      "冤</w>": 7242,
      "辍</w>": 7243,
      "仿</w>": 7244,
      "驶</w>": 7245,
      "抿</w>": 7246,
      "讽</w>": 7247,
      "伙</w>": 7248,
      "仃</w>": 7249,
      "舒</w>": 7250,
      "芝</w>": 7251,
      "广</w>": 7252,
      "畔</w>": 7253,
      "萃</w>": 7254,
      "溶</w>": 7255,
      "璃</w>": 7256,
      "筷</w>": 7257,
      "媒</w>": 7258,
      "凝</w>": 7259,
      "叽</w>": 7260,
      "寐</w>": 7261,
      "混</w>": 7262,
      "叭</w>": 7263,
      "怼</w>": 7264,
      "戮</w>": 7265,
      "悦</w>": 7266,
      "执</w>": 7267,
      "傍</w>": 7268,
      "遥</w>": 7269,
      "追</w>": 7270,
      "竞</w>": 7271,
      "蚤</w>": 7272,
      "囡</w>": 7273,
      "愉</w>": 7274,
      "棘</w>": 7275,
      "肆</w>": 7276,
      "眸</w>": 7277,
      "刮</w>": 7278,
      "唐</w>": 7279,
      "骼</w>": 7280,
      "袂</w>": 7281,
      "蕉</w>": 7282,
      "趾</w>": 7283,
      "涮</w>": 7284,
      "哩</w>": 7285,
      "陋</w>": 7286,
      "雁</w>": 7287,
      "宠</w>": 7288,
      "吞</w>": 7289,
      "隅</w>": 7290,
      "淮</w>": 7291,
      "偿</w>": 7292,
      "咏</w>": 7293,
      "硕</w>": 7294,
      "牧</w>": 7295,
      "贞</w>": 7296,
      "蚁</w>": 7297,
      "忽</w>": 7298,
      "惨</w>": 7299,
      "滥</w>": 7300,
      "肥</w>": 7301,
      "滚</w>": 7302,
      "劫</w>": 7303,
      "霉</w>": 7304,
      "雳</w>": 7305,
      "氢</w>": 7306,
      "卿</w>": 7307,
      "鹤</w>": 7308,
      "估</w>": 7309,
      "琐</w>": 7310,
      "蘑</w>": 7311,
      "嚼</w>": 7312,
      "甚</w>": 7313,
      "煲</w>": 7314,
      "汾</w>": 7315,
      "杖</w>": 7316,
      "拓</w>": 7317,
      "夹</w>": 7318,
      "徐</w>": 7319,
      "嚣</w>": 7320,
      "琛</w>": 7321,
      "遂</w>": 7322,
      "爪</w>": 7323,
      "坨</w>": 7324,
      "邪</w>": 7325,
      "敞</w>": 7326,
      "锣</w>": 7327,
      "巍</w>": 7328,
      "齁</w>": 7329,
      "迫</w>": 7330,
      "猜</w>": 7331,
      "残</w>": 7332,
      "筛</w>": 7333,
      "耙</w>": 7334,
      "逵</w>": 7335,
      "绘</w>": 7336,
      "鼎</w>": 7337,
      "筐</w>": 7338,
      "浔</w>": 7339,
      "煮</w>": 7340,
      "赃</w>": 7341,
      "磷</w>": 7342,
      "逗</w>": 7343,
      "飘</w>": 7344,
      "脐</w>": 7345,
      "蟾</w>": 7346,
      "巷</w>": 7347,
      "茹</w>": 7348,
      "栋</w>": 7349,
      "凰</w>": 7350,
      "吐</w>": 7351,
      "肪</w>": 7352,
      "幽</w>": 7353,
      "尉</w>": 7354,
      "烷</w>": 7355,
      "倾</w>": 7356,
      "锚</w>": 7357,
      "嘘</w>": 7358,
      "篱</w>": 7359,
      "粤</w>": 7360,
      "纵</w>": 7361,
      "奢</w>": 7362,
      "鹃</w>": 7363,
      "瘠</w>": 7364,
      "扭</w>": 7365,
      "棱</w>": 7366,
      "焱</w>": 7367,
      "镁</w>": 7368,
      "垣</w>": 7369,
      "疯</w>": 7370,
      "噎</w>": 7371,
      "钊</w>": 7372,
      "怒</w>": 7373,
      "翅</w>": 7374,
      "踞</w>": 7375,
      "弈</w>": 7376,
      "谎</w>": 7377,
      "吼</w>": 7378,
      "蹈</w>": 7379,
      "畴</w>": 7380,
      "鳞</w>": 7381,
      "擂</w>": 7382,
      "罚</w>": 7383,
      "靴</w>": 7384,
      "停</w>": 7385,
      "琅</w>": 7386,
      "宙</w>": 7387,
      "哀</w>": 7388,
      "璞</w>": 7389,
      "靶</w>": 7390,
      "凶</w>": 7391,
      "簧</w>": 7392,
      "迦</w>": 7393,
      "韶</w>": 7394,
      "魃</w>": 7395,
      "喊</w>": 7396,
      "承</w>": 7397,
      "姻</w>": 7398,
      "旷</w>": 7399,
      "呕</w>": 7400,
      "扑</w>": 7401,
      "孚</w>": 7402,
      "哑</w>": 7403,
      "庇</w>": 7404,
      "谬</w>": 7405,
      "蝠</w>": 7406,
      "欲</w>": 7407,
      "鸦</w>": 7408,
      "辙</w>": 7409,
      "遁</w>": 7410,
      "焚</w>": 7411,
      "瑶</w>": 7412,
      "昧</w>": 7413,
      "灶</w>": 7414,
      "栓</w>": 7415,
      "冽</w>": 7416,
      "零</w>": 7417,
      "惘</w>": 7418,
      "杏</w>": 7419,
      "雹</w>": 7420,
      "勤</w>": 7421,
      "崇</w>": 7422,
      "偶</w>": 7423,
      "陡</w>": 7424,
      "幺</w>": 7425,
      "馅</w>": 7426,
      "独</w>": 7427,
      "惋</w>": 7428,
      "骇</w>": 7429,
      "麋</w>": 7430,
      "蟹</w>": 7431,
      "犸</w>": 7432,
      "鸭</w>": 7433,
      "哟</w>": 7434,
      "寸</w>": 7435,
      "缕</w>": 7436,
      "莺</w>": 7437,
      "姊</w>": 7438,
      "涕</w>": 7439,
      "肌</w>": 7440,
      "拙</w>": 7441,
      "讨</w>": 7442,
      "余</w>": 7443,
      "乏</w>": 7444,
      "逝</w>": 7445,
      "曜</w>": 7446,
      "蔓</w>": 7447,
      "涡</w>": 7448,
      "孜</w>": 7449,
      "奏</w>": 7450,
      "炒</w>": 7451,
      "默</w>": 7452,
      "茱</w>": 7453,
      "踝</w>": 7454,
      "磊</w>": 7455,
      "睦</w>": 7456,
      "睁</w>": 7457,
      "碰</w>": 7458,
      "酥</w>": 7459,
      "卤</w>": 7460,
      "饺</w>": 7461,
      "董</w>": 7462,
      "姜</w>": 7463,
      "烁</w>": 7464,
      "跟</w>": 7465,
      "暑</w>": 7466,
      "灌</w>": 7467,
      "嘲</w>": 7468,
      "炊</w>": 7469,
      "劵</w>": 7470,
      "躲</w>": 7471,
      "尿</w>": 7472,
      "峥</w>": 7473,
      "瞥</w>": 7474,
      "嫣</w>": 7475,
      "玻</w>": 7476,
      "邀</w>": 7477,
      "纷</w>": 7478,
      "岳</w>": 7479,
      "狭</w>": 7480,
      "肖</w>": 7481,
      "瞧</w>": 7482,
      "垛</w>": 7483,
      "耘</w>": 7484,
      "婴</w>": 7485,
      "渺</w>": 7486,
      "谭</w>": 7487,
      "抓</w>": 7488,
      "葬</w>": 7489,
      "洪</w>": 7490,
      "栈</w>": 7491,
      "龈</w>": 7492,
      "吟</w>": 7493,
      "谜</w>": 7494,
      "嘚</w>": 7495,
      "稻</w>": 7496,
      "屁</w>": 7497,
      "莓</w>": 7498,
      "瀑</w>": 7499,
      "搐</w>": 7500,
      "殊</w>": 7501,
      "澡</w>": 7502,
      "犀</w>": 7503,
      "泄</w>": 7504,
      "汛</w>": 7505,
      "葱</w>": 7506,
      "卜</w>": 7507,
      "歹</w>": 7508,
      "娥</w>": 7509,
      "轿</w>": 7510,
      "秃</w>": 7511,
      "徨</w>": 7512,
      "梢</w>": 7513,
      "抄</w>": 7514,
      "袭</w>": 7515,
      "腻</w>": 7516,
      "镑</w>": 7517,
      "蛛</w>": 7518,
      "晗</w>": 7519,
      "熏</w>": 7520,
      "捧</w>": 7521,
      "轶</w>": 7522,
      "咨</w>": 7523,
      "媚</w>": 7524,
      "讧</w>": 7525,
      "钵</w>": 7526,
      "稍</w>": 7527,
      "嫦</w>": 7528,
      "僻</w>": 7529,
      "弛</w>": 7530,
      "蝗</w>": 7531,
      "隘</w>": 7532,
      "袅</w>": 7533,
      "粗</w>": 7534,
      "寅</w>": 7535,
      "釜</w>": 7536,
      "剔</w>": 7537,
      "匣</w>": 7538,
      "厕</w>": 7539,
      "逞</w>": 7540,
      "龇</w>": 7541,
      "醛</w>": 7542,
      "黍</w>": 7543,
      "煎</w>": 7544,
      "晌</w>": 7545,
      "楷</w>": 7546,
      "稷</w>": 7547,
      "朱</w>": 7548,
      "诱</w>": 7549,
      "淀</w>": 7550,
      "专</w>": 7551,
      "呆</w>": 7552,
      "玄</w>": 7553,
      "纠</w>": 7554,
      "闵</w>": 7555,
      "殇</w>": 7556,
      "懒</w>": 7557,
      "酪</w>": 7558,
      "涯</w>": 7559,
      "丫</w>": 7560,
      "愈</w>": 7561,
      "韩</w>": 7562,
      "侠</w>": 7563,
      "癫</w>": 7564,
      "袁</w>": 7565,
      "喧</w>": 7566,
      "骡</w>": 7567,
      "腆</w>": 7568,
      "颐</w>": 7569,
      "屈</w>": 7570,
      "篓</w>": 7571,
      "潜</w>": 7572,
      "抢</w>": 7573,
      "噗</w>": 7574,
      "嘤</w>": 7575,
      "旬</w>": 7576,
      "沉</w>": 7577,
      "疹</w>": 7578,
      "啬</w>": 7579,
      "厦</w>": 7580,
      "蹋</w>": 7581,
      "恺</w>": 7582,
      "邃</w>": 7583,
      "侵</w>": 7584,
      "叔</w>": 7585,
      "踢</w>": 7586,
      "斌</w>": 7587,
      "腱</w>": 7588,
      "鲍</w>": 7589,
      "闸</w>": 7590,
      "霾</w>": 7591,
      "咂</w>": 7592,
      "虞</w>": 7593,
      "挟</w>": 7594,
      "硝</w>": 7595,
      "裆</w>": 7596,
      "'</w>": 7597,
      "烛</w>": 7598,
      "穹</w>": 7599,
      "擎</w>": 7600,
      "麓</w>": 7601,
      "臊</w>": 7602,
      "怂</w>": 7603,
      "秒</w>": 7604,
      "聋</w>": 7605,
      "竟</w>": 7606,
      "蜴</w>": 7607,
      "俪</w>": 7608,
      "蒋</w>": 7609,
      "跎</w>": 7610,
      "朦</w>": 7611,
      "憾</w>": 7612,
      "觞</w>": 7613,
      "惟</w>": 7614,
      "镖</w>": 7615,
      "恭</w>": 7616,
      "薛</w>": 7617,
      "愚</w>": 7618,
      "虹</w>": 7619,
      "慨</w>": 7620,
      "帷</w>": 7621,
      "殃</w>": 7622,
      "牵</w>": 7623,
      "辨</w>": 7624,
      "夸</w>": 7625,
      "懿</w>": 7626,
      "又</w>": 7627,
      "嫌</w>": 7628,
      "巨</w>": 7629,
      "撅</w>": 7630,
      "蒸</w>": 7631,
      "(</w>": 7632,
      "冯</w>": 7633,
      "欺</w>": 7634,
      "袖</w>": 7635,
      "皇</w>": 7636,
      "祟</w>": 7637,
      "叟</w>": 7638,
      "砍</w>": 7639,
      "辽</w>": 7640,
      "嗒</w>": 7641,
      "铂</w>": 7642,
      "泱</w>": 7643,
      "揍</w>": 7644,
      "摘</w>": 7645,
      "哼</w>": 7646,
      "屌</w>": 7647,
      "你</w>": 7648,
      "撰</w>": 7649,
      "掠</w>": 7650,
      "肃</w>": 7651,
      "涝</w>": 7652,
      "棺</w>": 7653,
      "屡</w>": 7654,
      "奎</w>": 7655,
      "孢</w>": 7656,
      "番</w>": 7657,
      "戳</w>": 7658,
      "皖</w>": 7659,
      "堕</w>": 7660,
      "藕</w>": 7661,
      "左</w>": 7662,
      "傥</w>": 7663,
      "铛</w>": 7664,
      "植</w>": 7665,
      "蓉</w>": 7666,
      "郁</w>": 7667,
      "绢</w>": 7668,
      "拼</w>": 7669,
      "箩</w>": 7670,
      "嬛</w>": 7671,
      "亢</w>": 7672,
      "乌</w>": 7673,
      "驹</w>": 7674,
      "肋</w>": 7675,
      "闪</w>": 7676,
      "剥</w>": 7677,
      "蟒</w>": 7678,
      "咚</w>": 7679,
      "幸</w>": 7680,
      "笋</w>": 7681,
      "彬</w>": 7682,
      "狒</w>": 7683,
      "榭</w>": 7684,
      "镐</w>": 7685,
      "呀</w>": 7686,
      "叨</w>": 7687,
      "仙</w>": 7688,
      "棕</w>": 7689,
      "阪</w>": 7690,
      "掰</w>": 7691,
      "凌</w>": 7692,
      "擞</w>": 7693,
      "诛</w>": 7694,
      "勘</w>": 7695,
      "傀</w>": 7696,
      "契</w>": 7697,
      "疚</w>": 7698,
      "炕</w>": 7699,
      "锤</w>": 7700,
      "弥</w>": 7701,
      "狸</w>": 7702,
      "胤</w>": 7703,
      "泊</w>": 7704,
      "咙</w>": 7705,
      "斥</w>": 7706,
      "骚</w>": 7707,
      "恃</w>": 7708,
      "胧</w>": 7709,
      "悲</w>": 7710,
      "穷</w>": 7711,
      "踉</w>": 7712,
      "灿</w>": 7713,
      "亦</w>": 7714,
      "瘁</w>": 7715,
      "寞</w>": 7716,
      "曰</w>": 7717,
      "蹦</w>": 7718,
      "曳</w>": 7719,
      "嬉</w>": 7720,
      "徙</w>": 7721,
      "嚷</w>": 7722,
      "匡</w>": 7723,
      "袄</w>": 7724,
      "滂</w>": 7725,
      "缔</w>": 7726,
      "戚</w>": 7727,
      "赦</w>": 7728,
      "疤</w>": 7729,
      "乞</w>": 7730,
      "寥</w>": 7731,
      "瓢</w>": 7732,
      "茧</w>": 7733,
      "递</w>": 7734,
      "褂</w>": 7735,
      "宰</w>": 7736,
      "榨</w>": 7737,
      "毯</w>": 7738,
      "椒</w>": 7739,
      "谑</w>": 7740,
      "或</w>": 7741,
      "摧</w>": 7742,
      "哨</w>": 7743,
      "帛</w>": 7744,
      "苟</w>": 7745,
      "沾</w>": 7746,
      "鳕</w>": 7747,
      "堰</w>": 7748,
      "酵</w>": 7749,
      "襟</w>": 7750,
      "癖</w>": 7751,
      "卟</w>": 7752,
      "璨</w>": 7753,
      "咳</w>": 7754,
      "哄</w>": 7755,
      "推</w>": 7756,
      "萱</w>": 7757,
      "缭</w>": 7758,
      "雀</w>": 7759,
      "瘪</w>": 7760,
      "蚕</w>": 7761,
      "飚</w>": 7762,
      "侍</w>": 7763,
      "糊</w>": 7764,
      "淑</w>": 7765,
      "愣</w>": 7766,
      "跤</w>": 7767,
      "婿</w>": 7768,
      "钧</w>": 7769,
      "弧</w>": 7770,
      "携</w>": 7771,
      "呵</w>": 7772,
      "珏</w>": 7773,
      "滋</w>": 7774,
      "渎</w>": 7775,
      "枯</w>": 7776,
      "澈</w>": 7777,
      "奘</w>": 7778,
      "苹</w>": 7779,
      "漫</w>": 7780,
      "吕</w>": 7781,
      "侃</w>": 7782,
      "禹</w>": 7783,
      "赞</w>": 7784,
      "椎</w>": 7785,
      "咖</w>": 7786,
      "毡</w>": 7787,
      "谚</w>": 7788,
      "诣</w>": 7789,
      "倦</w>": 7790,
      "衩</w>": 7791,
      "躁</w>": 7792,
      "咻</w>": 7793,
      "卯</w>": 7794,
      "顷</w>": 7795,
      "舅</w>": 7796,
      "谧</w>": 7797,
      "搽</w>": 7798,
      "赘</w>": 7799,
      "慧</w>": 7800,
      "副</w>": 7801,
      "徊</w>": 7802,
      "骰</w>": 7803,
      "仲</w>": 7804,
      "蚪</w>": 7805,
      "苍</w>": 7806,
      "蚊</w>": 7807,
      "彰</w>": 7808,
      "芷</w>": 7809,
      "钝</w>": 7810,
      "磅</w>": 7811,
      "妖</w>": 7812,
      "绰</w>": 7813,
      "砌</w>": 7814,
      "叛</w>": 7815,
      "辟</w>": 7816,
      "汝</w>": 7817,
      "邯</w>": 7818,
      "筹</w>": 7819,
      "拖</w>": 7820,
      "咐</w>": 7821,
      "瞻</w>": 7822,
      "讹</w>": 7823,
      "熄</w>": 7824,
      "乙</w>": 7825,
      "襄</w>": 7826,
      "蒿</w>": 7827,
      "浙</w>": 7828,
      "泞</w>": 7829,
      "劝</w>": 7830,
      "萄</w>": 7831,
      "冥</w>": 7832,
      "绊</w>": 7833,
      "藉</w>": 7834,
      "褪</w>": 7835,
      "祈</w>": 7836,
      "茄</w>": 7837,
      "妾</w>": 7838,
      "渴</w>": 7839,
      "颊</w>": 7840,
      "萧</w>": 7841,
      "狰</w>": 7842,
      "娩</w>": 7843,
      "坞</w>": 7844,
      "耿</w>": 7845,
      "俄</w>": 7846,
      "猝</w>": 7847,
      "斓</w>": 7848,
      "吗</w>": 7849,
      "袒</w>": 7850,
      "灸</w>": 7851,
      "跷</w>": 7852,
      "嘟</w>": 7853,
      "粪</w>": 7854,
      "谣</w>": 7855,
      "贯</w>": 7856,
      "蜗</w>": 7857,
      "邓</w>": 7858,
      "淼</w>": 7859,
      "酣</w>": 7860,
      "绽</w>": 7861,
      "恙</w>": 7862,
      "澜</w>": 7863,
      "吹</w>": 7864,
      "喳</w>": 7865,
      "弋</w>": 7866,
      "狄</w>": 7867,
      "漳</w>": 7868,
      "柚</w>": 7869,
      "漱</w>": 7870,
      "孤</w>": 7871,
      "蹊</w>": 7872,
      "涧</w>": 7873,
      "允</w>": 7874,
      "掖</w>": 7875,
      "荫</w>": 7876,
      "柑</w>": 7877,
      "吠</w>": 7878,
      "翠</w>": 7879,
      "甩</w>": 7880,
      "勉</w>": 7881,
      "羡</w>": 7882,
      "仍</w>": 7883,
      "蟠</w>": 7884,
      "矶</w>": 7885,
      "漓</w>": 7886,
      "颇</w>": 7887,
      "腩</w>": 7888,
      "诬</w>": 7889,
      "恕</w>": 7890,
      "怦</w>": 7891,
      "沁</w>": 7892,
      "萌</w>": 7893,
      "驯</w>": 7894,
      "骄</w>": 7895,
      "牲</w>": 7896,
      "娴</w>": 7897,
      "厮</w>": 7898,
      "睬</w>": 7899,
      "喃</w>": 7900,
      "斩</w>": 7901,
      "鼬</w>": 7902,
      "枕</w>": 7903,
      "颓</w>": 7904,
      "瞒</w>": 7905,
      "枉</w>": 7906,
      "媳</w>": 7907,
      "璋</w>": 7908,
      "殴</w>": 7909,
      "祁</w>": 7910,
      "暨</w>": 7911,
      "蘸</w>": 7912,
      "夭</w>": 7913,
      "俐</w>": 7914,
      "岔</w>": 7915,
      "邸</w>": 7916,
      "柒</w>": 7917,
      "谩</w>": 7918,
      "央</w>": 7919,
      "碴</w>": 7920,
      "竭</w>": 7921,
      "岖</w>": 7922,
      "滔</w>": 7923,
      "嗽</w>": 7924,
      "啖</w>": 7925,
      "赂</w>": 7926,
      "肇</w>": 7927,
      "偏</w>": 7928,
      "腐</w>": 7929,
      "恢</w>": 7930,
      "既</w>": 7931,
      "谤</w>": 7932,
      "沽</w>": 7933,
      "储</w>": 7934,
      "魅</w>": 7935,
      "镶</w>": 7936,
      "慌</w>": 7937,
      "塾</w>": 7938,
      "踮</w>": 7939,
      "宵</w>": 7940,
      "蛀</w>": 7941,
      "憎</w>": 7942,
      "夷</w>": 7943,
      "砣</w>": 7944,
      "佯</w>": 7945,
      "漩</w>": 7946,
      "骤</w>": 7947,
      "匆</w>": 7948,
      "馋</w>": 7949,
      "荐</w>": 7950,
      "吴</w>": 7951,
      "囤</w>": 7952,
      "聪</w>": 7953,
      "璧</w>": 7954,
      "炳</w>": 7955,
      "秽</w>": 7956,
      "怜</w>": 7957,
      "窿</w>": 7958,
      "庞</w>": 7959,
      "硫</w>": 7960,
      "缚</w>": 7961,
      "矢</w>": 7962,
      "犟</w>": 7963,
      "牺</w>": 7964,
      "鹦</w>": 7965,
      "黜</w>": 7966,
      "诲</w>": 7967,
      "艮</w>": 7968,
      "啼</w>": 7969,
      "帼</w>": 7970,
      "泌</w>": 7971,
      "淳</w>": 7972,
      "鲑</w>": 7973,
      "撮</w>": 7974,
      "蛎</w>": 7975,
      "赣</w>": 7976,
      "姥</w>": 7977,
      "窖</w>": 7978,
      "披</w>": 7979,
      "迄</w>": 7980,
      "镂</w>": 7981,
      "胭</w>": 7982,
      "岐</w>": 7983,
      "蜓</w>": 7984,
      "坂</w>": 7985,
      "渝</w>": 7986,
      "韬</w>": 7987,
      "渭</w>": 7988,
      "锹</w>": 7989,
      "殷</w>": 7990,
      "胚</w>": 7991,
      "伢</w>": 7992,
      "艰</w>": 7993,
      "嗬</w>": 7994,
      "揖</w>": 7995,
      "俑</w>": 7996,
      "矫</w>": 7997,
      "昵</w>": 7998,
      "唧</w>": 7999,
      "蚱</w>": 8000,
      "瘟</w>": 8001,
      "哺</w>": 8002,
      "衷</w>": 8003,
      "侦</w>": 8004,
      "蹬</w>": 8005,
      "阮</w>": 8006,
      "锯</w>": 8007,
      "砺</w>": 8008,
      "挚</w>": 8009,
      "惚</w>": 8010,
      "鲈</w>": 8011,
      "搬</w>": 8012,
      "昊</w>": 8013,
      "怵</w>": 8014,
      "榴</w>": 8015,
      "呐</w>": 8016,
      "啪</w>": 8017,
      "碌</w>": 8018,
      "彪</w>": 8019,
      "惴</w>": 8020,
      "嗦</w>": 8021,
      "岑</w>": 8022,
      "蔚</w>": 8023,
      "噔</w>": 8024,
      "侈</w>": 8025,
      "俘</w>": 8026,
      "8</w>": 8027,
      "爹</w>": 8028,
      "叩</w>": 8029,
      "捻</w>": 8030,
      "圳</w>": 8031,
      "蔻</w>": 8032,
      "伶</w>": 8033,
      "赚</w>": 8034,
      "羿</w>": 8035,
      "瑕</w>": 8036,
      "衙</w>": 8037,
      "佰</w>": 8038,
      "屹</w>": 8039,
      "哗</w>": 8040,
      "嬷</w>": 8041,
      "吓</w>": 8042,
      "谛</w>": 8043,
      "跄</w>": 8044,
      "颠</w>": 8045,
      "更</w>": 8046,
      "趴</w>": 8047,
      "庸</w>": 8048,
      "卦</w>": 8049,
      "芙</w>": 8050,
      "挨</w>": 8051,
      "楂</w>": 8052,
      "馏</w>": 8053,
      "姝</w>": 8054,
      "汕</w>": 8055,
      "稣</w>": 8056,
      "绷</w>": 8057,
      "檀</w>": 8058,
      "膈</w>": 8059,
      "鳝</w>": 8060,
      "蛏</w>": 8061,
      "熬</w>": 8062,
      "粟</w>": 8063,
      "圾</w>": 8064,
      "魄</w>": 8065,
      "哏</w>": 8066,
      "绉</w>": 8067,
      "挣</w>": 8068,
      "豚</w>": 8069,
      "珅</w>": 8070,
      "脯</w>": 8071,
      "觑</w>": 8072,
      "窥</w>": 8073,
      "沮</w>": 8074,
      "璇</w>": 8075,
      "痧</w>": 8076,
      "惩</w>": 8077,
      "捡</w>": 8078,
      "缈</w>": 8079,
      "痞</w>": 8080,
      "罡</w>": 8081,
      "诀</w>": 8082,
      "珈</w>": 8083,
      "丕</w>": 8084,
      "爬</w>": 8085,
      "踵</w>": 8086,
      "阈</w>": 8087,
      "呈</w>": 8088,
      "彤</w>": 8089,
      "沪</w>": 8090,
      "泸</w>": 8091,
      "飕</w>": 8092,
      "珞</w>": 8093,
      "嘬</w>": 8094,
      "澄</w>": 8095,
      "搜</w>": 8096,
      "掂</w>": 8097,
      "瑾</w>": 8098,
      "胁</w>": 8099,
      "敖</w>": 8100,
      "砰</w>": 8101,
      "妒</w>": 8102,
      "煦</w>": 8103,
      "咪</w>": 8104,
      "狩</w>": 8105,
      "抽</w>": 8106,
      "秩</w>": 8107,
      "迥</w>": 8108,
      "瞪</w>": 8109,
      "萤</w>": 8110,
      "辜</w>": 8111,
      "邱</w>": 8112,
      "偃</w>": 8113,
      "悚</w>": 8114,
      "丙</w>": 8115,
      "炬</w>": 8116,
      "瞰</w>": 8117,
      "荤</w>": 8118,
      "挞</w>": 8119,
      "骁</w>": 8120,
      "乒</w>": 8121,
      "佼</w>": 8122,
      "馁</w>": 8123,
      "蛰</w>": 8124,
      "瞑</w>": 8125,
      "嫉</w>": 8126,
      "脓</w>": 8127,
      "秉</w>": 8128,
      "铅</w>": 8129,
      "涎</w>": 8130,
      "橇</w>": 8131,
      "蛤</w>": 8132,
      "哪</w>": 8133,
      "倡</w>": 8134,
      "鲨</w>": 8135,
      "叱</w>": 8136,
      "鬓</w>": 8137,
      "凄</w>": 8138,
      "婶</w>": 8139,
      "椰</w>": 8140,
      "恁</w>": 8141,
      "墟</w>": 8142,
      "蜇</w>": 8143,
      "顽</w>": 8144,
      "屯</w>": 8145,
      "褛</w>": 8146,
      "饲</w>": 8147,
      "诞</w>": 8148,
      "倪</w>": 8149,
      "羲</w>": 8150,
      "沦</w>": 8151,
      "雏</w>": 8152,
      "畸</w>": 8153,
      "锄</w>": 8154,
      "亵</w>": 8155,
      "茁</w>": 8156,
      "鹭</w>": 8157,
      "惆</w>": 8158,
      "蔡</w>": 8159,
      "峻</w>": 8160,
      "揉</w>": 8161,
      "酋</w>": 8162,
      "饥</w>": 8163,
      "辘</w>": 8164,
      "玷</w>": 8165,
      "煞</w>": 8166,
      "擒</w>": 8167,
      "掺</w>": 8168,
      "丞</w>": 8169,
      "芜</w>": 8170,
      "饪</w>": 8171,
      "弩</w>": 8172,
      "惶</w>": 8173,
      "霏</w>": 8174,
      "锰</w>": 8175,
      "辄</w>": 8176,
      "摔</w>": 8177,
      "粘</w>": 8178,
      "丐</w>": 8179,
      "宦</w>": 8180,
      "贾</w>": 8181,
      "樱</w>": 8182,
      "堑</w>": 8183,
      "莞</w>": 8184,
      "烽</w>": 8185,
      "茉</w>": 8186,
      "匾</w>": 8187,
      "汲</w>": 8188,
      "垠</w>": 8189,
      "炫</w>": 8190,
      "陨</w>": 8191,
      "宕</w>": 8192,
      "嫁</w>": 8193,
      "嗨</w>": 8194,
      "纣</w>": 8195,
      "潇</w>": 8196,
      "诋</w>": 8197,
      "妲</w>": 8198,
      "沓</w>": 8199,
      "犊</w>": 8200,
      "浏</w>": 8201,
      "驭</w>": 8202,
      "啰</w>": 8203,
      "睫</w>": 8204,
      "阐</w>": 8205,
      "隍</w>": 8206,
      "铢</w>": 8207,
      "冉</w>": 8208,
      "逻</w>": 8209,
      "墅</w>": 8210,
      "鄂</w>": 8211,
      "屉</w>": 8212,
      "闽</w>": 8213,
      "跚</w>": 8214,
      "谅</w>": 8215,
      "昨</w>": 8216,
      "孀</w>": 8217,
      "呓</w>": 8218,
      "埚</w>": 8219,
      "涣</w>": 8220,
      "拆</w>": 8221,
      "洱</w>": 8222,
      "瀚</w>": 8223,
      "膑</w>": 8224,
      "膊</w>": 8225,
      "亥</w>": 8226,
      "祛</w>": 8227,
      "芸</w>": 8228,
      "盯</w>": 8229,
      "裱</w>": 8230,
      "违</w>": 8231,
      "潢</w>": 8232,
      "荧</w>": 8233,
      "蔑</w>": 8234,
      "俭</w>": 8235,
      "鳖</w>": 8236,
      "奠</w>": 8237,
      "黎</w>": 8238,
      "曹</w>": 8239,
      "罢</w>": 8240,
      "瘩</w>": 8241,
      "绎</w>": 8242,
      "鳗</w>": 8243,
      "玮</w>": 8244,
      "粽</w>": 8245,
      "迢</w>": 8246,
      "茸</w>": 8247,
      "怅</w>": 8248,
      "剌</w>": 8249,
      "懵</w>": 8250,
      "砸</w>": 8251,
      "噫</w>": 8252,
      "厥</w>": 8253,
      "睨</w>": 8254,
      "忒</w>": 8255,
      "糜</w>": 8256,
      "扼</w>": 8257,
      "榄</w>": 8258,
      "侣</w>": 8259,
      "褐</w>": 8260,
      "晋</w>": 8261,
      "驿</w>": 8262,
      "婕</w>": 8263,
      "嗷</w>": 8264,
      "锏</w>": 8265,
      "炷</w>": 8266,
      "匐</w>": 8267,
      "臼</w>": 8268,
      "歉</w>": 8269,
      "奕</w>": 8270,
      "瑙</w>": 8271,
      "蚂</w>": 8272,
      "衅</w>": 8273,
      "靖</w>": 8274,
      "腋</w>": 8275,
      "蔬</w>": 8276,
      "狙</w>": 8277,
      "纫</w>": 8278,
      "芍</w>": 8279,
      "铐</w>": 8280,
      "躺</w>": 8281,
      "槿</w>": 8282,
      "衿</w>": 8283,
      "拽</w>": 8284,
      "歼</w>": 8285,
      "氨</w>": 8286,
      "荜</w>": 8287,
      "缰</w>": 8288,
      "冀</w>": 8289,
      "婪</w>": 8290,
      "。</w>": 8291,
      "肱</w>": 8292,
      "轰</w>": 8293,
      "浇</w>": 8294,
      "琨</w>": 8295,
      "痫</w>": 8296,
      "蜚</w>": 8297,
      "庵</w>": 8298,
      "鳅</w>": 8299,
      "簸</w>": 8300,
      "悸</w>": 8301,
      "悴</w>": 8302,
      "姘</w>": 8303,
      "哧</w>": 8304,
      "槟</w>": 8305,
      "仄</w>": 8306,
      "嵩</w>": 8307,
      "峙</w>": 8308,
      "猩</w>": 8309,
      "烘</w>": 8310,
      "氪</w>": 8311,
      "醐</w>": 8312,
      "臧</w>": 8313,
      "粱</w>": 8314,
      "阙</w>": 8315,
      "瞌</w>": 8316,
      "掸</w>": 8317,
      "诽</w>": 8318,
      "陕</w>": 8319,
      "吝</w>": 8320,
      "诡</w>": 8321,
      "溉</w>": 8322,
      "梧</w>": 8323,
      "各</w>": 8324,
      "稼</w>": 8325,
      "喆</w>": 8326,
      "啡</w>": 8327,
      "痣</w>": 8328,
      "噢</w>": 8329,
      "萎</w>": 8330,
      "幄</w>": 8331,
      "葩</w>": 8332,
      "轲</w>": 8333,
      "榕</w>": 8334,
      "嗅</w>": 8335,
      "砾</w>": 8336,
      "楞</w>": 8337,
      "涓</w>": 8338,
      "禺</w>": 8339,
      "镣</w>": 8340,
      "槃</w>": 8341,
      "谍</w>": 8342,
      "拗</w>": 8343,
      "禀</w>": 8344,
      "刨</w>": 8345,
      "珑</w>": 8346,
      "崴</w>": 8347,
      "烩</w>": 8348,
      "蛟</w>": 8349,
      "蟆</w>": 8350,
      "拷</w>": 8351,
      "猾</w>": 8352,
      "媲</w>": 8353,
      "虏</w>": 8354,
      "阉</w>": 8355,
      "痨</w>": 8356,
      "玥</w>": 8357,
      "阄</w>": 8358,
      "怔</w>": 8359,
      "遏</w>": 8360,
      "兀</w>": 8361,
      "砧</w>": 8362,
      "徘</w>": 8363,
      "髅</w>": 8364,
      "淇</w>": 8365,
      "熹</w>": 8366,
      "腥</w>": 8367,
      "蓦</w>": 8368,
      "抉</w>": 8369,
      "泗</w>": 8370,
      "孬</w>": 8371,
      "拣</w>": 8372,
      "黔</w>": 8373,
      "濑</w>": 8374,
      "鲳</w>": 8375,
      "惫</w>": 8376,
      "陇</w>": 8377,
      "炙</w>": 8378,
      "痔</w>": 8379,
      "鲫</w>": 8380,
      "彝</w>": 8381,
      "杞</w>": 8382,
      "蓓</w>": 8383,
      "艹</w>": 8384,
      "贬</w>": 8385,
      "猥</w>": 8386,
      "诩</w>": 8387,
      "舀</w>": 8388,
      "删</w>": 8389,
      "阑</w>": 8390,
      "皆</w>": 8391,
      "辖</w>": 8392,
      "嗞</w>": 8393,
      "兼</w>": 8394,
      "嗖</w>": 8395,
      "最</w>": 8396,
      "逮</w>": 8397,
      "忏</w>": 8398,
      "牟</w>": 8399,
      "怎</w>": 8400,
      "啊</w>": 8401,
      "俱</w>": 8402,
      "佘</w>": 8403,
      "橙</w>": 8404,
      "忑</w>": 8405,
      "儡</w>": 8406,
      "缤</w>": 8407,
      "欻</w>": 8408,
      "拘</w>": 8409,
      "琉</w>": 8410,
      "焯</w>": 8411,
      "惭</w>": 8412,
      "狡</w>": 8413,
      "僚</w>": 8414,
      "弼</w>": 8415,
      "鸾</w>": 8416,
      "湍</w>": 8417,
      "揭</w>": 8418,
      "鱿</w>": 8419,
      "攀</w>": 8420,
      "柿</w>": 8421,
      "嘻</w>": 8422,
      "憧</w>": 8423,
      "唰</w>": 8424,
      "剃</w>": 8425,
      "鹑</w>": 8426,
      "炅</w>": 8427,
      "飙</w>": 8428,
      "姚</w>": 8429,
      "沱</w>": 8430,
      "捣</w>": 8431,
      "澎</w>": 8432,
      "霓</w>": 8433,
      "翱</w>": 8434,
      "舆</w>": 8435,
      "晏</w>": 8436,
      "傻</w>": 8437,
      "瞬</w>": 8438,
      "龚</w>": 8439,
      "沈</w>": 8440,
      "绞</w>": 8441,
      "暄</w>": 8442,
      "寮</w>": 8443,
      "赁</w>": 8444,
      "钛</w>": 8445,
      "札</w>": 8446,
      "汰</w>": 8447,
      "睽</w>": 8448,
      "魇</w>": 8449,
      "茫</w>": 8450,
      "颁</w>": 8451,
      "芥</w>": 8452,
      "涤</w>": 8453,
      "窒</w>": 8454,
      "瞅</w>": 8455,
      "獭</w>": 8456,
      "犷</w>": 8457,
      "遵</w>": 8458,
      "梆</w>": 8459,
      "褒</w>": 8460,
      "焖</w>": 8461,
      "裸</w>": 8462,
      "泯</w>": 8463,
      "嘱</w>": 8464,
      "陂</w>": 8465,
      "咣</w>": 8466,
      "抠</w>": 8467,
      "恿</w>": 8468,
      "俸</w>": 8469,
      "辐</w>": 8470,
      "蜻</w>": 8471,
      "孵</w>": 8472,
      "龊</w>": 8473,
      "舜</w>": 8474,
      "饨</w>": 8475,
      "摹</w>": 8476,
      "宥</w>": 8477,
      "呛</w>": 8478,
      "酝</w>": 8479,
      "苛</w>": 8480,
      "锢</w>": 8481,
      "鸠</w>": 8482,
      "呜</w>": 8483,
      "娆</w>": 8484,
      "湛</w>": 8485,
      "戬</w>": 8486,
      "舐</w>": 8487,
      "哎</w>": 8488,
      "伎</w>": 8489,
      "剽</w>": 8490,
      "惇</w>": 8491,
      "噩</w>": 8492,
      "仞</w>": 8493,
      "膻</w>": 8494,
      "莅</w>": 8495,
      "噌</w>": 8496,
      "樽</w>": 8497,
      "拂</w>": 8498,
      "筱</w>": 8499,
      "淬</w>": 8500,
      "呦</w>": 8501,
      "婵</w>": 8502,
      "淅</w>": 8503,
      "擘</w>": 8504,
      "噻</w>": 8505,
      "惹</w>": 8506,
      "咿</w>": 8507,
      "她</w>": 8508,
      "嫔</w>": 8509,
      "粑</w>": 8510,
      "羯</w>": 8511,
      "浒</w>": 8512,
      "庐</w>": 8513,
      "崛</w>": 8514,
      "侏</w>": 8515,
      "拴</w>": 8516,
      "叮</w>": 8517,
      "泾</w>": 8518,
      "鸵</w>": 8519,
      "愕</w>": 8520,
      "仟</w>": 8521,
      "哐</w>": 8522,
      "遨</w>": 8523,
      "歆</w>": 8524,
      "狲</w>": 8525,
      "鹊</w>": 8526,
      "裟</w>": 8527,
      "宛</w>": 8528,
      "馍</w>": 8529,
      "狈</w>": 8530,
      "挽</w>": 8531,
      "狞</w>": 8532,
      "眨</w>": 8533,
      "麒</w>": 8534,
      "嗡</w>": 8535,
      "镰</w>": 8536,
      "篆</w>": 8537,
      "梓</w>": 8538,
      "鳄</w>": 8539,
      "眯</w>": 8540,
      "瑚</w>": 8541,
      "盹</w>": 8542,
      "黯</w>": 8543,
      "煜</w>": 8544,
      "稚</w>": 8545,
      "钹</w>": 8546,
      "徉</w>": 8547,
      "忡</w>": 8548,
      "焗</w>": 8549,
      "谙</w>": 8550,
      "躬</w>": 8551,
      "暧</w>": 8552,
      "邢</w>": 8553,
      "荟</w>": 8554,
      "嗓</w>": 8555,
      "篡</w>": 8556,
      "拄</w>": 8557,
      "侥</w>": 8558,
      "榷</w>": 8559,
      "攥</w>": 8560,
      "陌</w>": 8561,
      "撕</w>": 8562,
      "哽</w>": 8563,
      "宸</w>": 8564,
      "鬣</w>": 8565,
      "碘</w>": 8566,
      "捍</w>": 8567,
      "奚</w>": 8568,
      "甄</w>": 8569,
      "杈</w>": 8570,
      "惕</w>": 8571,
      "菩</w>": 8572,
      "鹉</w>": 8573,
      "杭</w>": 8574,
      "憬</w>": 8575,
      "肛</w>": 8576,
      "詹</w>": 8577,
      "昕</w>": 8578,
      "髦</w>": 8579,
      "瑰</w>": 8580,
      "窈</w>": 8581,
      "殓</w>": 8582,
      "蒲</w>": 8583,
      "孑</w>": 8584,
      "缨</w>": 8585,
      "啷</w>": 8586,
      "蚝</w>": 8587,
      "蛹</w>": 8588,
      "铠</w>": 8589,
      "撵</w>": 8590,
      "郭</w>": 8591,
      "辫</w>": 8592,
      "旯</w>": 8593,
      "很</w>": 8594,
      "阖</w>": 8595,
      "铬</w>": 8596,
      "辕</w>": 8597,
      "囍</w>": 8598,
      "薰</w>": 8599,
      "喇</w>": 8600,
      "渲</w>": 8601,
      "呸</w>": 8602,
      "鲢</w>": 8603,
      "嗲</w>": 8604,
      "牦</w>": 8605,
      "碜</w>": 8606,
      "踽</w>": 8607,
      "每</w>": 8608,
      "荆</w>": 8609,
      "糅</w>": 8610,
      "皑</w>": 8611,
      "鸢</w>": 8612,
      "藓</w>": 8613,
      "冗</w>": 8614,
      "沭</w>": 8615,
      "胯</w>": 8616,
      "鸨</w>": 8617,
      "扒</w>": 8618,
      "樟</w>": 8619,
      "槐</w>": 8620,
      "痿</w>": 8621,
      "笙</w>": 8622,
      "呗</w>": 8623,
      "淄</w>": 8624,
      "憋</w>": 8625,
      "碉</w>": 8626,
      "夯</w>": 8627,
      "鲤</w>": 8628,
      "拯</w>": 8629,
      "蜕</w>": 8630,
      "虽</w>": 8631,
      "咤</w>": 8632,
      "叼</w>": 8633,
      "吆</w>": 8634,
      "擀</w>": 8635,
      "烙</w>": 8636,
      "但</w>": 8637,
      "枭</w>": 8638,
      "嘭</w>": 8639,
      "抬</w>": 8640,
      "拮</w>": 8641,
      "掏</w>": 8642,
      "煽</w>": 8643,
      "呯</w>": 8644,
      "坷</w>": 8645,
      "佟</w>": 8646,
      "遢</w>": 8647,
      "诶</w>": 8648,
      "鞠</w>": 8649,
      "亳</w>": 8650,
      "乍</w>": 8651,
      "懦</w>": 8652,
      "岌</w>": 8653,
      "魑</w>": 8654,
      "黝</w>": 8655,
      "挪</w>": 8656,
      "恪</w>": 8657,
      "巅</w>": 8658,
      "芊</w>": 8659,
      "攒</w>": 8660,
      "嗐</w>": 8661,
      "睾</w>": 8662,
      "嗔</w>": 8663,
      "鲲</w>": 8664,
      "蜃</w>": 8665,
      "戛</w>": 8666,
      "竺</w>": 8667,
      "1</w>": 8668,
      "豁</w>": 8669,
      "腼</w>": 8670,
      "搪</w>": 8671,
      "朕</w>": 8672,
      "颦</w>": 8673,
      "郝</w>": 8674,
      "蟀</w>": 8675,
      "枷</w>": 8676,
      "癞</w>": 8677,
      "诅</w>": 8678,
      "嵘</w>": 8679,
      "皙</w>": 8680,
      "瞩</w>": 8681,
      "胳</w>": 8682,
      "倘</w>": 8683,
      "0</w>": 8684,
      "蟋</w>": 8685,
      "喔</w>": 8686,
      "搔</w>": 8687,
      "竖</w>": 8688,
      "蜿</w>": 8689,
      "琥</w>": 8690,
      "揪</w>": 8691,
      "兢</w>": 8692,
      "耽</w>": 8693,
      "煊</w>": 8694,
      "噱</w>": 8695,
      "猖</w>": 8696,
      "咄</w>": 8697,
      "鳌</w>": 8698,
      "闺</w>": 8699,
      "撸</w>": 8700,
      "甥</w>": 8701,
      "鹌</w>": 8702,
      "笆</w>": 8703,
      "馗</w>": 8704,
      "岬</w>": 8705,
      "跪</w>": 8706,
      "殒</w>": 8707,
      "5</w>": 8708,
      "毋</w>": 8709,
      "梵</w>": 8710,
      "尬</w>": 8711,
      "刘</w>": 8712,
      "殉</w>": 8713,
      "啾</w>": 8714,
      "尴</w>": 8715,
      "蹩</w>": 8716,
      "愫</w>": 8717,
      "虔</w>": 8718,
      "赳</w>": 8719,
      "葡</w>": 8720,
      "蛊</w>": 8721,
      "鹞</w>": 8722,
      "郸</w>": 8723,
      "蹲</w>": 8724,
      "隋</w>": 8725,
      "嗜</w>": 8726,
      "咦</w>": 8727,
      "溥</w>": 8728,
      "胱</w>": 8729,
      "瞭</w>": 8730,
      "娲</w>": 8731,
      "尅</w>": 8732,
      "噼</w>": 8733,
      "拇</w>": 8734,
      "蚣</w>": 8735,
      "捅</w>": 8736,
      "袱</w>": 8737,
      "栩</w>": 8738,
      "紊</w>": 8739,
      "裴</w>": 8740,
      "姗</w>": 8741,
      "绫</w>": 8742,
      "邹</w>": 8743,
      "烬</w>": 8744,
      "咩</w>": 8745,
      "驷</w>": 8746,
      "扔</w>": 8747,
      "蠕</w>": 8748,
      "霹</w>": 8749,
      "褓</w>": 8750,
      "棣</w>": 8751,
      "殡</w>": 8752,
      "贪</w>": 8753,
      "蛆</w>": 8754,
      "挎</w>": 8755,
      "摒</w>": 8756,
      "鲶</w>": 8757,
      "蔼</w>": 8758,
      "惦</w>": 8759,
      "喂</w>": 8760,
      "遮</w>": 8761,
      "啧</w>": 8762,
      "抛</w>": 8763,
      "淦</w>": 8764,
      "嘣</w>": 8765,
      "倭</w>": 8766,
      "孰</w>": 8767,
      "饽</w>": 8768,
      "庶</w>": 8769,
      "镭</w>": 8770,
      "栉</w>": 8771,
      "觎</w>": 8772,
      "驮</w>": 8773,
      "毽</w>": 8774,
      "溧</w>": 8775,
      "獗</w>": 8776,
      "捎</w>": 8777,
      "婀</w>": 8778,
      "嗑</w>": 8779,
      "仨</w>": 8780,
      "咱</w>": 8781,
      "侩</w>": 8782,
      "瘸</w>": 8783,
      "懊</w>": 8784,
      "绮</w>": 8785,
      "煸</w>": 8786,
      "捶</w>": 8787,
      "咛</w>": 8788,
      "缅</w>": 8789,
      "叻</w>": 8790,
      "逑</w>": 8791,
      "抒</w>": 8792,
      "撩</w>": 8793,
      "扪</w>": 8794,
      "催</w>": 8795,
      "牡</w>": 8796,
      "讪</w>": 8797,
      "哮</w>": 8798,
      "魉</w>": 8799,
      "倜</w>": 8800,
      "蝈</w>": 8801,
      "彗</w>": 8802,
      "抨</w>": 8803,
      "犒</w>": 8804,
      "匍</w>": 8805,
      "幌</w>": 8806,
      "倨</w>": 8807,
      "缉</w>": 8808,
      "嬅</w>": 8809,
      "倔</w>": 8810,
      "琶</w>": 8811,
      "捺</w>": 8812,
      "唾</w>": 8813,
      "糍</w>": 8814,
      "唔</w>": 8815,
      "磋</w>": 8816,
      "崭</w>": 8817,
      "硌</w>": 8818,
      "簪</w>": 8819,
      "蹿</w>": 8820,
      "蝌</w>": 8821,
      "嗤</w>": 8822,
      "诠</w>": 8823,
      "鬟</w>": 8824,
      "捋</w>": 8825,
      "痉</w>": 8826,
      "按</w>": 8827,
      "躏</w>": 8828,
      "溏</w>": 8829,
      "浣</w>": 8830,
      "遛</w>": 8831,
      "捯</w>": 8832,
      "獠</w>": 8833,
      "沏</w>": 8834,
      "辗</w>": 8835,
      "嬴</w>": 8836,
      "踹</w>": 8837,
      "撂</w>": 8838,
      "猬</w>": 8839,
      "蜷</w>": 8840,
      "偌</w>": 8841,
      "瞟</w>": 8842,
      "褚</w>": 8843,
      "2</w>": 8844,
      "夙</w>": 8845,
      "腚</w>": 8846,
      "喵</w>": 8847,
      "恻</w>": 8848,
      "唷</w>": 8849,
      "邵</w>": 8850,
      "颉</w>": 8851,
      "磕</w>": 8852,
      "烊</w>": 8853,
      "纰</w>": 8854,
      "弑</w>": 8855,
      "甭</w>": 8856,
      "馒</w>": 8857,
      "囧</w>": 8858,
      "晾</w>": 8859,
      "崔</w>": 8860,
      "潼</w>": 8861,
      "皎</w>": 8862,
      "胰</w>": 8863,
      "蹶</w>": 8864,
      "啵</w>": 8865,
      "嘞</w>": 8866,
      "岂</w>": 8867,
      "暹</w>": 8868,
      "摁</w>": 8869,
      "貅</w>": 8870,
      "匮</w>": 8871,
      "拧</w>": 8872,
      "茕</w>": 8873,
      "伫</w>": 8874,
      "曝</w>": 8875,
      "这</w>": 8876,
      "螳</w>": 8877,
      "聂</w>": 8878,
      "喋</w>": 8879,
      "掀</w>": 8880,
      "唉</w>": 8881,
      "剐</w>": 8882,
      "逍</w>": 8883,
      "桀</w>": 8884,
      "樵</w>": 8885,
      "酗</w>": 8886,
      "荀</w>": 8887,
      "9</w>": 8888,
      "嗯</w>": 8889,
      "嚯</w>": 8890,
      "鸯</w>": 8891,
      "呃</w>": 8892,
      "糗</w>": 8893,
      "淆</w>": 8894,
      "讥</w>": 8895,
      "铆</w>": 8896,
      "罂</w>": 8897,
      "咋</w>": 8898,
      "矬</w>": 8899,
      "瞄</w>": 8900,
      "诙</w>": 8901,
      "醍</w>": 8902,
      "葚</w>": 8903,
      "糯</w>": 8904,
      "逾</w>": 8905,
      "砒</w>": 8906,
      "吖</w>": 8907,
      "翟</w>": 8908,
      "6</w>": 8909,
      "呱</w>": 8910,
      "怄</w>": 8911,
      "闫</w>": 8912,
      "荏</w>": 8913,
      "皈</w>": 8914,
      "斟</w>": 8915,
      "迸</w>": 8916,
      "矜</w>": 8917,
      "绯</w>": 8918,
      "阎</w>": 8919,
      "镊</w>": 8920,
      "拎</w>": 8921,
      "薅</w>": 8922,
      "骜</w>": 8923,
      "镚</w>": 8924,
      "杷</w>": 8925,
      "龌</w>": 8926,
      "彷</w>": 8927,
      "盎</w>": 8928,
      "贰</w>": 8929,
      "芭</w>": 8930,
      "哦</w>": 8931,
      "豺</w>": 8932,
      "哞</w>": 8933,
      "缥</w>": 8934,
      "惬</w>": 8935,
      "俺</w>": 8936,
      "啥</w>": 8937,
      "嘈</w>": 8938,
      "咆</w>": 8939,
      "趁</w>": 8940,
      "诓</w>": 8941,
      "啄</w>": 8942,
      "捌</w>": 8943,
      "娓</w>": 8944,
      "葫</w>": 8945,
      "稞</w>": 8946,
      "藐</w>": 8947,
      "喽</w>": 8948,
      "攸</w>": 8949,
      "菀</w>": 8950,
      "唏</w>": 8951,
      "阡</w>": 8952,
      "窕</w>": 8953,
      "俞</w>": 8954,
      "擅</w>": 8955,
      "3</w>": 8956,
      "昙</w>": 8957,
      "赊</w>": 8958,
      "扳</w>": 8959,
      "鲛</w>": 8960,
      "逅</w>": 8961,
      "7</w>": 8962,
      "诟</w>": 8963,
      "鹬</w>": 8964,
      "渤</w>": 8965,
      "俯</w>": 8966,
      "刽</w>": 8967,
      "丢</w>": 8968,
      "铤</w>": 8969,
      "藿</w>": 8970,
      "偕</w>": 8971,
      "蚩</w>": 8972,
      "黏</w>": 8973,
      "踊</w>": 8974,
      "蛳</w>": 8975,
      "蛐</w>": 8976,
      "韭</w>": 8977,
      "谴</w>": 8978,
      "嵋</w>": 8979,
      "沧</w>": 8980,
      "烹</w>": 8981,
      "餮</w>": 8982,
      "馊</w>": 8983,
      "肏</w>": 8984,
      "咔</w>": 8985,
      "琊</w>": 8986,
      "狍</w>": 8987,
      "雌</w>": 8988,
      "欸</w>": 8989,
      "譬</w>": 8990,
      "彧</w>": 8991,
      "哆</w>": 8992,
      "濒</w>": 8993,
      "腌</w>": 8994,
      "孪</w>": 8995,
      "碾</w>": 8996,
      "掐</w>": 8997,
      "匈</w>": 8998,
      "蛔</w>": 8999,
      "喱</w>": 9000,
      "匕</w>": 9001,
      "遐</w>": 9002,
      "竽</w>": 9003,
      "跺</w>": 9004,
      "柰</w>": 9005,
      "氲</w>": 9006,
      "迂</w>": 9007,
      "呲</w>": 9008,
      "睥</w>": 9009,
      "凋</w>": 9010,
      "瓮</w>": 9011,
      "邋</w>": 9012,
      "踩</w>": 9013,
      "沐</w>": 9014,
      "廖</w>": 9015,
      "掳</w>": 9016,
      "眈</w>": 9017,
      "郴</w>": 9018,
      "嫖</w>": 9019,
      "搀</w>": 9020,
      "猢</w>": 9021,
      "掇</w>": 9022,
      "莆</w>": 9023,
      "栀</w>": 9024,
      "婊</w>": 9025,
      "轱</w>": 9026,
      "沤</w>": 9027,
      "跶</w>": 9028,
      "菠</w>": 9029,
      "饕</w>": 9030,
      "滁</w>": 9031,
      "剁</w>": 9032,
      "膨</w>": 9033,
      "潺</w>": 9034,
      "哔</w>": 9035,
      "慵</w>": 9036,
      "4</w>": 9037,
      "蟑</w>": 9038,
      "另</w>": 9039,
      "嗙</w>": 9040,
      "抡</w>": 9041,
      "刁</w>": 9042,
      "镌</w>": 9043,
      "慷</w>": 9044,
      "椭</w>": 9045,
      "橡</w>": 9046,
      "蹉</w>": 9047,
      "娉</w>": 9048,
      "th": 9049,
      "in": 9050,
      "the</w>": 9051,
      "an": 9052,
      "re": 9053,
      "ti": 9054,
      "er": 9055,
      "en": 9056,
      "on": 9057,
      "ou": 9058,
      "ar": 9059,
      "of</w>": 9060,
      "to</w>": 9061,
      "on</w>": 9062,
      "ed</w>": 9063,
      "ing</w>": 9064,
      "or": 9065,
      "er</w>": 9066,
      "and</w>": 9067,
      "it": 9068,
      "is</w>": 9069,
      "st": 9070,
      "al": 9071,
      "es</w>": 9072,
      "in</w>": 9073,
      "ro": 9074,
      "at": 9075,
      "at</w>": 9076,
      "ati": 9077,
      "om": 9078,
      "or</w>": 9079,
      "al</w>": 9080,
      "ac": 9081,
      "ec": 9082,
      "ic": 9083,
      "el": 9084,
      "Th": 9085,
      "as</w>": 9086,
      "es": 9087,
      "an</w>": 9088,
      "il": 9089,
      "ve</w>": 9090,
      "is": 9091,
      "as": 9092,
      "en</w>": 9093,
      "ur": 9094,
      "pl": 9095,
      "ha": 9096,
      "ent</w>": 9097,
      "ly</w>": 9098,
      "si": 9099,
      "ol": 9100,
      "ou</w>": 9101,
      "that</w>": 9102,
      "no": 9103,
      "us": 9104,
      "ri": 9105,
      "The</w>": 9106,
      "wh": 9107,
      "ation</w>": 9108,
      "pro": 9109,
      "for</w>": 9110,
      "em": 9111,
      "ts</w>": 9112,
      "you</w>": 9113,
      "ev": 9114,
      "con": 9115,
      "it</w>": 9116,
      "li": 9117,
      "lo": 9118,
      "un": 9119,
      "di": 9120,
      "ab": 9121,
      "sh": 9122,
      "ra": 9123,
      "su": 9124,
      "ce</w>": 9125,
      "le</w>": 9126,
      "be": 9127,
      "ch": 9128,
      "the": 9129,
      "be</w>": 9130,
      "ag": 9131,
      "com": 9132,
      "ith</w>": 9133,
      "ay</w>": 9134,
      "are</w>": 9135,
      "me</w>": 9136,
      "ad": 9137,
      "ex": 9138,
      "le": 9139,
      "with</w>": 9140,
      "tion</w>": 9141,
      "ere</w>": 9142,
      "res": 9143,
      "op": 9144,
      "gh": 9145,
      "ld</w>": 9146,
      "我们</w>": 9147,
      "oun": 9148,
      "os": 9149,
      "for": 9150,
      "ons</w>": 9151,
      "de": 9152,
      "was</w>": 9153,
      "ul": 9154,
      "our</w>": 9155,
      "ir": 9156,
      "ne": 9157,
      "all</w>": 9158,
      "ity</w>": 9159,
      "have</w>": 9160,
      "ap": 9161,
      "ver": 9162,
      "ter": 9163,
      "ould</w>": 9164,
      "not</w>": 9165,
      "tr": 9166,
      "uc": 9167,
      "ak": 9168,
      "qu": 9169,
      "im": 9170,
      "ut</w>": 9171,
      "ff": 9172,
      "out</w>": 9173,
      "一个</w>": 9174,
      "ate</w>": 9175,
      "am": 9176,
      "oo": 9177,
      "et</w>": 9178,
      "he</w>": 9179,
      "ci": 9180,
      "by</w>": 9181,
      "ther</w>": 9182,
      "ar</w>": 9183,
      "wor": 9184,
      "pe": 9185,
      "ment</w>": 9186,
      "ow": 9187,
      "ill</w>": 9188,
      "per": 9189,
      "this</w>": 9190,
      "ers</w>": 9191,
      "id": 9192,
      "se": 9193,
      "me": 9194,
      "one</w>": 9195,
      "sa": 9196,
      "ter</w>": 9197,
      "ds</w>": 9198,
      "ght</w>": 9199,
      "por": 9200,
      "ted</w>": 9201,
      "hi": 9202,
      "rom</w>": 9203,
      "will</w>": 9204,
      "par": 9205,
      "from</w>": 9206,
      "他们</w>": 9207,
      "th</w>": 9208,
      "so</w>": 9209,
      "ess</w>": 9210,
      "can</w>": 9211,
      "str": 9212,
      "ir</w>": 9213,
      "has</w>": 9214,
      "te": 9215,
      "ure</w>": 9216,
      "sp": 9217,
      "his</w>": 9218,
      "red</w>": 9219,
      "mo": 9220,
      "ear": 9221,
      "ant</w>": 9222,
      "id</w>": 9223,
      "ren": 9224,
      "your</w>": 9225,
      "any</w>": 9226,
      "um": 9227,
      "ple</w>": 9228,
      "ore</w>": 9229,
      "ome</w>": 9230,
      "onal</w>": 9231,
      "ally</w>": 9232,
      "tic": 9233,
      "we</w>": 9234,
      "we": 9235,
      "gi": 9236,
      "rec": 9237,
      "ud": 9238,
      "its</w>": 9239,
      "ent": 9240,
      "ing": 9241,
      "ust</w>": 9242,
      "ang": 9243,
      "se</w>": 9244,
      "ain": 9245,
      "ch</w>": 9246,
      "go": 9247,
      "ake</w>": 9248,
      "ay": 9249,
      "ents</w>": 9250,
      "可以</w>": 9251,
      "fe": 9252,
      "Ch": 9253,
      "vi": 9254,
      "my</w>": 9255,
      "to": 9256,
      "ance</w>": 9257,
      "ting</w>": 9258,
      "Wh": 9259,
      "It</w>": 9260,
      "able</w>": 9261,
      "ow</w>": 9262,
      "ations</w>": 9263,
      "their</w>": 9264,
      "He</w>": 9265,
      "our": 9266,
      "gh</w>": 9267,
      "ut": 9268,
      "but</w>": 9269,
      "ic</w>": 9270,
      "bo": 9271,
      "had</w>": 9272,
      "dis": 9273,
      "cont": 9274,
      "po": 9275,
      "没有</w>": 9276,
      "ong</w>": 9277,
      "they</w>": 9278,
      "ad</w>": 9279,
      "cl": 9280,
      "do": 9281,
      "ich</w>": 9282,
      "her</w>": 9283,
      "more</w>": 9284,
      "ese</w>": 9285,
      "min": 9286,
      "ding</w>": 9287,
      "now</w>": 9288,
      "ke</w>": 9289,
      "duc": 9290,
      "coun": 9291,
      "co": 9292,
      "问题</w>": 9293,
      "ated</w>": 9294,
      "der</w>": 9295,
      "ey</w>": 9296,
      "age</w>": 9297,
      "ig": 9298,
      "iz": 9299,
      "use</w>": 9300,
      "ain</w>": 9301,
      "pre": 9302,
      "up</w>": 9303,
      "been</w>": 9304,
      "ice</w>": 9305,
      "were</w>": 9306,
      "st</w>": 9307,
      "est</w>": 9308,
      "us</w>": 9309,
      "ary</w>": 9310,
      "he": 9311,
      "which</w>": 9312,
      "pr": 9313,
      "fin": 9314,
      "ste": 9315,
      "pres": 9316,
      "time</w>": 9317,
      "ople</w>": 9318,
      "ous</w>": 9319,
      "ell</w>": 9320,
      "In</w>": 9321,
      "rou": 9322,
      "ty</w>": 9323,
      "do</w>": 9324,
      "would</w>": 9325,
      "ast</w>": 9326,
      "ace</w>": 9327,
      "什么</w>": 9328,
      "evel": 9329,
      "other</w>": 9330,
      "ll</w>": 9331,
      "day</w>": 9332,
      "ver</w>": 9333,
      "这个</w>": 9334,
      "ties</w>": 9335,
      "form": 9336,
      "ood</w>": 9337,
      "ence</w>": 9338,
      "ks</w>": 9339,
      "ect</w>": 9340,
      "about</w>": 9341,
      "We</w>": 9342,
      "这些</w>": 9343,
      "ely</w>": 9344,
      "der": 9345,
      "ess": 9346,
      "king</w>": 9347,
      "ase</w>": 9348,
      "Chin": 9349,
      "pos": 9350,
      "cre": 9351,
      "tions</w>": 9352,
      "ge</w>": 9353,
      "ard</w>": 9354,
      "comm": 9355,
      "said</w>": 9356,
      "An": 9357,
      "people</w>": 9358,
      "fi": 9359,
      "ep": 9360,
      "自己</w>": 9361,
      "sion</w>": 9362,
      "ever</w>": 9363,
      "so": 9364,
      "est": 9365,
      "own</w>": 9366,
      "ine</w>": 9367,
      "tive</w>": 9368,
      "also</w>": 9369,
      "This</w>": 9370,
      "ational</w>": 9371,
      "ost</w>": 9372,
      "工作</w>": 9373,
      "de</w>": 9374,
      "ten": 9375,
      "如果</w>": 9376,
      "ser": 9377,
      "ound</w>": 9378,
      "way</w>": 9379,
      "prov": 9380,
      "thing</w>": 9381,
      "la": 9382,
      "tra": 9383,
      "国家</w>": 9384,
      "可能</w>": 9385,
      "should</w>": 9386,
      "You</w>": 9387,
      "ement</w>": 9388,
      "inter": 9389,
      "el</w>": 9390,
      "mar": 9391,
      "like</w>": 9392,
      "comp": 9393,
      "there</w>": 9394,
      "evelop": 9395,
      "进行</w>": 9396,
      "him</w>": 9397,
      "sy": 9398,
      "into</w>": 9399,
      "new</w>": 9400,
      "oc": 9401,
      "ni": 9402,
      "ca": 9403,
      "tri": 9404,
      "ue</w>": 9405,
      "tw": 9406,
      "bec": 9407,
      "fu": 9408,
      "when</w>": 9409,
      "gra": 9410,
      "no</w>": 9411,
      "mon": 9412,
      "ies</w>": 9413,
      "what</w>": 9414,
      "work</w>": 9415,
      "af": 9416,
      "ph": 9417,
      "econ": 9418,
      "sel": 9419,
      "very</w>": 9420,
      "ays</w>": 9421,
      "old</w>": 9422,
      "and": 9423,
      "ack</w>": 9424,
      "bl": 9425,
      "some</w>": 9426,
      "them</w>": 9427,
      "ever": 9428,
      "fir": 9429,
      "ical</w>": 9430,
      "gre": 9431,
      "develop": 9432,
      "sti": 9433,
      "But</w>": 9434,
      "av": 9435,
      "if</w>": 9436,
      "she</w>": 9437,
      "wi": 9438,
      "who</w>": 9439,
      "ings</w>": 9440,
      "In": 9441,
      "bu": 9442,
      "ber</w>": 9443,
      "res</w>": 9444,
      "et": 9445,
      "需要</w>": 9446,
      "get</w>": 9447,
      "ked</w>": 9448,
      "pol": 9449,
      "og": 9450,
      "中国</w>": 9451,
      "loo": 9452,
      "ory</w>": 9453,
      "bet": 9454,
      "tu": 9455,
      "ite</w>": 9456,
      "than</w>": 9457,
      "ates</w>": 9458,
      "ob": 9459,
      "fe</w>": 9460,
      "fl": 9461,
      "du": 9462,
      "tur": 9463,
      "fac": 9464,
      "因为</w>": 9465,
      "ning</w>": 9466,
      "am</w>": 9467,
      "all": 9468,
      "St": 9469,
      "port": 9470,
      "发展</w>": 9471,
      "ble</w>": 9472,
      "公司</w>": 9473,
      "national</w>": 9474,
      "已经</w>": 9475,
      "low": 9476,
      "man": 9477,
      "acc": 9478,
      "ves</w>": 9479,
      "ru": 9480,
      "但是</w>": 9481,
      "rel": 9482,
      "知道</w>": 9483,
      "only</w>": 9484,
      "ces</w>": 9485,
      "could</w>": 9486,
      "end</w>": 9487,
      "dec": 9488,
      "enti": 9489,
      "inv": 9490,
      "ose</w>": 9491,
      "des": 9492,
      "port</w>": 9493,
      "And</w>": 9494,
      "man</w>": 9495,
      "ded</w>": 9496,
      "ome": 9497,
      "ffic": 9498,
      "ors</w>": 9499,
      "hel": 9500,
      "ile</w>": 9501,
      "政府</w>": 9502,
      "一些</w>": 9503,
      "ited</w>": 9504,
      "most</w>": 9505,
      "may</w>": 9506,
      "know</w>": 9507,
      "gr": 9508,
      "不是</w>": 9509,
      "spec": 9510,
      "tec": 9511,
      "ach</w>": 9512,
      "ial</w>": 9513,
      "fore</w>": 9514,
      "just</w>": 9515,
      "ish</w>": 9516,
      "two</w>": 9517,
      "研究</w>": 9518,
      "of": 9519,
      "pp": 9520,
      "ade</w>": 9521,
      "ful</w>": 9522,
      "mis": 9523,
      "ill": 9524,
      "make</w>": 9525,
      "au": 9526,
      "over</w>": 9527,
      "ink</w>": 9528,
      "ener": 9529,
      "If</w>": 9530,
      "vern": 9531,
      "re</w>": 9532,
      "als</w>": 9533,
      "ans</w>": 9534,
      "China</w>": 9535,
      "ving</w>": 9536,
      "fa": 9537,
      "现在</w>": 9538,
      "gu": 9539,
      "br": 9540,
      "ans": 9541,
      "ist": 9542,
      "认为</w>": 9543,
      "这种</w>": 9544,
      "ass": 9545,
      "ved</w>": 9546,
      "必须</w>": 9547,
      "时间</w>": 9548,
      "提供</w>": 9549,
      "chang": 9550,
      "cer": 9551,
      "They</w>": 9552,
      "重要</w>": 9553,
      "ree</w>": 9554,
      "ater</w>": 9555,
      "一种</w>": 9556,
      "ying</w>": 9557,
      "isi": 9558,
      "try</w>": 9559,
      "sec": 9560,
      "good</w>": 9561,
      "mat": 9562,
      "thou": 9563,
      "go</w>": 9564,
      "with": 9565,
      "stem</w>": 9566,
      "所有</w>": 9567,
      "Com": 9568,
      "sup": 9569,
      "美国</w>": 9570,
      "Un": 9571,
      "many</w>": 9572,
      "ish": 9573,
      "econom": 9574,
      "used</w>": 9575,
      "these</w>": 9576,
      "uch</w>": 9577,
      "ating</w>": 9578,
      "ears</w>": 9579,
      "ned</w>": 9580,
      "must</w>": 9581,
      "ke": 9582,
      "proc": 9583,
      "时候</w>": 9584,
      "通过</w>": 9585,
      "ffe": 9586,
      "ative</w>": 9587,
      "come</w>": 9588,
      "ise</w>": 9589,
      "ility</w>": 9590,
      "resp": 9591,
      "She</w>": 9592,
      "how</w>": 9593,
      "jo": 9594,
      "rent</w>": 9595,
      "就是</w>": 9596,
      "经济</w>": 9597,
      "cri": 9598,
      "ei": 9599,
      "pri": 9600,
      "这样</w>": 9601,
      "requ": 9602,
      "take</w>": 9603,
      "pa": 9604,
      "tim": 9605,
      "shi": 9606,
      "don</w>": 9607,
      "sub": 9608,
      "end": 9609,
      "ause</w>": 9610,
      "ge": 9611,
      "see</w>": 9612,
      "sur": 9613,
      "oper": 9614,
      "col": 9615,
      "方面</w>": 9616,
      "made</w>": 9617,
      "开始</w>": 9618,
      "ft</w>": 9619,
      "fic": 9620,
      "ari": 9621,
      "throu": 9622,
      "shall</w>": 9623,
      "first</w>": 9624,
      "some": 9625,
      "system</w>": 9626,
      "cial</w>": 9627,
      "produc": 9628,
      "od</w>": 9629,
      "tle</w>": 9630,
      "rem": 9631,
      "import": 9632,
      "方法</w>": 9633,
      "sul": 9634,
      "such</w>": 9635,
      "enc": 9636,
      "eli": 9637,
      "right</w>": 9638,
      "row": 9639,
      "struc": 9640,
      "ps</w>": 9641,
      "ach": 9642,
      "loc": 9643,
      "ry</w>": 9644,
      "years</w>": 9645,
      "tic</w>": 9646,
      "world</w>": 9647,
      "情况</w>": 9648,
      "after</w>": 9649,
      "life</w>": 9650,
      "pers": 9651,
      "ide</w>": 9652,
      "car": 9653,
      "使用</w>": 9654,
      "il</w>": 9655,
      "ear</w>": 9656,
      "much</w>": 9657,
      "ily</w>": 9658,
      "ast": 9659,
      "low</w>": 9660,
      "development</w>": 9661,
      "gl": 9662,
      "ight</w>": 9663,
      "其他</w>": 9664,
      "dre": 9665,
      "self</w>": 9666,
      "ture</w>": 9667,
      "系统</w>": 9668,
      "ems</w>": 9669,
      "compl": 9670,
      "tly</w>": 9671,
      "ore": 9672,
      "stud": 9673,
      "ub": 9674,
      "cor": 9675,
      "Con": 9676,
      "What</w>": 9677,
      "影响</w>": 9678,
      "ell": 9679,
      "eff": 9680,
      "think</w>": 9681,
      "ween</w>": 9682,
      "ways</w>": 9683,
      "then</w>": 9684,
      "olog": 9685,
      "cur": 9686,
      "mil": 9687,
      "through</w>": 9688,
      "国际</w>": 9689,
      "There</w>": 9690,
      "sol": 9691,
      "need</w>": 9692,
      "vernment</w>": 9693,
      "under": 9694,
      "ef": 9695,
      "appl": 9696,
      "up": 9697,
      "ew</w>": 9698,
      "ist</w>": 9699,
      "世界</w>": 9700,
      "are": 9701,
      "eg": 9702,
      "down</w>": 9703,
      "委员": 9704,
      "between</w>": 9705,
      "委员会</w>": 9706,
      "exp": 9707,
      "bas": 9708,
      "任何</w>": 9709,
      "te</w>": 9710,
      "不能</w>": 9711,
      "before</w>": 9712,
      "ed": 9713,
      "部分</w>": 9714,
      "ind</w>": 9715,
      "back</w>": 9716,
      "acti": 9717,
      "chil": 9718,
      "ten</w>": 9719,
      "ep</w>": 9720,
      "well</w>": 9721,
      "ook</w>": 9722,
      "社会</w>": 9723,
      "sig": 9724,
      "bi": 9725,
      "jec": 9726,
      "sts</w>": 9727,
      "tries</w>": 9728,
      "sed</w>": 9729,
      "你们</w>": 9730,
      "To</w>": 9731,
      "even</w>": 9732,
      "anc": 9733,
      "mer": 9734,
      "want</w>": 9735,
      "diffe": 9736,
      "ities</w>": 9737,
      "希望</w>": 9738,
      "dy</w>": 9739,
      "where</w>": 9740,
      "act</w>": 9741,
      "生活</w>": 9742,
      "did</w>": 9743,
      "formation</w>": 9744,
      "read": 9745,
      "ign</w>": 9746,
      "组织</w>": 9747,
      "peri": 9748,
      "cap": 9749,
      "because</w>": 9750,
      "hum": 9751,
      "应该</w>": 9752,
      "lit": 9753,
      "tical</w>": 9754,
      "important</w>": 9755,
      "ys</w>": 9756,
      "fun": 9757,
      "dic": 9758,
      "serv": 9759,
      "tak": 9760,
      "有关</w>": 9761,
      "人们</w>": 9762,
      "inte": 9763,
      "lar": 9764,
      "countries</w>": 9765,
      "不会</w>": 9766,
      "ful": 9767,
      "eas": 9768,
      "许多</w>": 9769,
      "ality</w>": 9770,
      "international</w>": 9771,
      "sch": 9772,
      "sm": 9773,
      "char": 9774,
      "those</w>": 9775,
      "tech": 9776,
      "consi": 9777,
      "reg": 9778,
      "ma": 9779,
      "poin": 9780,
      "ame</w>": 9781,
      "iness</w>": 9782,
      "ext</w>": 9783,
      "ress</w>": 9784,
      "When</w>": 9785,
      "会议</w>": 9786,
      "regi": 9787,
      "clo": 9788,
      "ave</w>": 9789,
      "trans": 9790,
      "ket</w>": 9791,
      "val": 9792,
      "bus": 9793,
      "fri": 9794,
      "um</w>": 9795,
      "side</w>": 9796,
      "United</w>": 9797,
      "here</w>": 9798,
      "om</w>": 9799,
      "sure</w>": 9800,
      "under</w>": 9801,
      "tor</w>": 9802,
      "gan": 9803,
      "respon": 9804,
      "now": 9805,
      "too</w>": 9806,
      "技术</w>": 9807,
      "contin": 9808,
      "As</w>": 9809,
      "Chinese</w>": 9810,
      "sc": 9811,
      "wom": 9812,
      "Ar": 9813,
      "num": 9814,
      "En": 9815,
      "ris": 9816,
      "ters</w>": 9817,
      "tal": 9818,
      "ms</w>": 9819,
      "year</w>": 9820,
      "fr": 9821,
      "非常</w>": 9822,
      "resul": 9823,
      "它们</w>": 9824,
      "clud": 9825,
      "wr": 9826,
      "dra": 9827,
      "孩子</w>": 9828,
      "lic</w>": 9829,
      "still</w>": 9830,
      "要求</w>": 9831,
      "主要</w>": 9832,
      "成为</w>": 9833,
      "happ": 9834,
      "因此</w>": 9835,
      "dem": 9836,
      "Mr</w>": 9837,
      "stan": 9838,
      "不同</w>": 9839,
      "ship</w>": 9840,
      "活动</w>": 9841,
      "equ": 9842,
      "long</w>": 9843,
      "form</w>": 9844,
      "起来</w>": 9845,
      "提出</w>": 9846,
      "ve": 9847,
      "country</w>": 9848,
      "得到</w>": 9849,
      "star": 9850,
      "That</w>": 9851,
      "ool</w>": 9852,
      "emb": 9853,
      "hear": 9854,
      "ust": 9855,
      "adv": 9856,
      "going</w>": 9857,
      "mit": 9858,
      "uring</w>": 9859,
      "being</w>": 9860,
      "incre": 9861,
      "ization</w>": 9862,
      "决定</w>": 9863,
      "say</w>": 9864,
      "ince</w>": 9865,
      "nec": 9866,
      "ong": 9867,
      "eng": 9868,
      "put</w>": 9869,
      "安全</w>": 9870,
      "作为</w>": 9871,
      "ven</w>": 9872,
      "ision</w>": 9873,
      "那些</w>": 9874,
      "posi": 9875,
      "tre": 9876,
      "ta": 9877,
      "ven": 9878,
      "发生</w>": 9879,
      "off</w>": 9880,
      "off": 9881,
      "cul": 9882,
      "tro": 9883,
      "little</w>": 9884,
      "vir": 9885,
      "ous": 9886,
      "能够</w>": 9887,
      "abl": 9888,
      "fol": 9889,
      "aly": 9890,
      "正在</w>": 9891,
      "contro": 9892,
      "ember</w>": 9893,
      "计划</w>": 9894,
      "ublic</w>": 9895,
      "last</w>": 9896,
      "sid": 9897,
      "less</w>": 9898,
      "pe</w>": 9899,
      "联合": 9900,
      "以及</w>": 9901,
      "ank</w>": 9902,
      "great</w>": 9903,
      "ness</w>": 9904,
      "ass</w>": 9905,
      "ution</w>": 9906,
      "always</w>": 9907,
      "tain</w>": 9908,
      "out": 9909,
      "ices</w>": 9910,
      "mak": 9911,
      "ments</w>": 9912,
      "喜欢</w>": 9913,
      "On": 9914,
      "pow": 9915,
      "lear": 9916,
      "prob": 9917,
      "plo": 9918,
      "gener": 9919,
      "know": 9920,
      "表示</w>": 9921,
      "change</w>": 9922,
      "sible</w>": 9923,
      "help</w>": 9924,
      "fam": 9925,
      "发现</w>": 9926,
      "sen": 9927,
      "ability</w>": 9928,
      "Pro": 9929,
      "cour": 9930,
      "spe": 9931,
      "一次</w>": 9932,
      "人员</w>": 9933,
      "meth": 9934,
      "over": 9935,
      "techn": 9936,
      "sum": 9937,
      "information</w>": 9938,
      "ghts</w>": 9939,
      "机构</w>": 9940,
      "manag": 9941,
      "ures</w>": 9942,
      "same</w>": 9943,
      "ject</w>": 9944,
      "never</w>": 9945,
      "市场</w>": 9946,
      "关于</w>": 9947,
      "ual</w>": 9948,
      "part</w>": 9949,
      "ot</w>": 9950,
      "place</w>": 9951,
      "each</w>": 9952,
      "关系</w>": 9953,
      "water</w>": 9954,
      "bre": 9955,
      "ticle</w>": 9956,
      "owever</w>": 9957,
      "分析</w>": 9958,
      "一样</w>": 9959,
      "由于</w>": 9960,
      "progra": 9961,
      "地方</w>": 9962,
      "如何</w>": 9963,
      "direc": 9964,
      "set</w>": 9965,
      "或者</w>": 9966,
      "issu": 9967,
      "之间</w>": 9968,
      "ication</w>": 9969,
      "plan": 9970,
      "而且</w>": 9971,
      "sk": 9972,
      "got</w>": 9973,
      "without</w>": 9974,
      "管理</w>": 9975,
      "war": 9976,
      "ord": 9977,
      "那么</w>": 9978,
      "特别</w>": 9979,
      "economic</w>": 9980,
      "elec": 9981,
      "stri": 9982,
      "Amer": 9983,
      "rest</w>": 9984,
      "ular</w>": 9985,
      "Americ": 9986,
      "han": 9987,
      "leg": 9988,
      "while</w>": 9989,
      "所以</w>": 9990,
      "为了</w>": 9991,
      "gg": 9992,
      "这是</w>": 9993,
      "地区</w>": 9994,
      "dn</w>": 9995,
      "tain": 9996,
      "No</w>": 9997,
      "ism</w>": 9998,
      "报告</w>": 9999,
      "har": 10000,
      "先生</w>": 10001,
      "beli": 10002,
      "对于</w>": 10003,
      "sit": 10004,
      "body</w>": 10005,
      "ner</w>": 10006,
      "give</w>": 10007,
      "ized</w>": 10008,
      "For</w>": 10009,
      "ology</w>": 10010,
      "还是</w>": 10011,
      "方式</w>": 10012,
      "del": 10013,
      "includ": 10014,
      "同时</w>": 10015,
      "order</w>": 10016,
      "服务</w>": 10017,
      "wee": 10018,
      "So</w>": 10019,
      "cc": 10020,
      "commun": 10021,
      "love</w>": 10022,
      "ini": 10023,
      "urity</w>": 10024,
      "tional</w>": 10025,
      "努力</w>": 10026,
      "company</w>": 10027,
      "继续</w>": 10028,
      "pec": 10029,
      "entr": 10030,
      "告诉</w>": 10031,
      "Al": 10032,
      "every</w>": 10033,
      "buil": 10034,
      "tee</w>": 10035,
      "看到</w>": 10036,
      "sist": 10037,
      "part": 10038,
      "dren</w>": 10039,
      "different</w>": 10040,
      "effec": 10041,
      "can": 10042,
      "项目</w>": 10043,
      "ques": 10044,
      "结果</w>": 10045,
      "both</w>": 10046,
      "face</w>": 10047,
      "作用</w>": 10048,
      "meas": 10049,
      "aper</w>": 10050,
      "联合国</w>": 10051,
      "rence</w>": 10052,
      "beg": 10053,
      "行动</w>": 10054,
      "ided</w>": 10055,
      "ainst</w>": 10056,
      "包括</w>": 10057,
      "ther": 10058,
      "process</w>": 10059,
      "ency</w>": 10060,
      "ak</w>": 10061,
      "organ": 10062,
      "ia</w>": 10063,
      "两个</w>": 10064,
      "Re": 10065,
      "soci": 10066,
      "很多</w>": 10067,
      "government</w>": 10068,
      "ouse</w>": 10069,
      "vis": 10070,
      "analy": 10071,
      "concer": 10072,
      "op</w>": 10073,
      "一直</w>": 10074,
      "look</w>": 10075,
      "How</w>": 10076,
      "number</w>": 10077,
      "ute</w>": 10078,
      "Coun": 10079,
      "does</w>": 10080,
      "sive</w>": 10081,
      "bro": 10082,
      "eve</w>": 10083,
      "against</w>": 10084,
      "具有</w>": 10085,
      "sing</w>": 10086,
      "ready</w>": 10087,
      "支持</w>": 10088,
      "any": 10089,
      "是否</w>": 10090,
      "那个</w>": 10091,
      "reas": 10092,
      "better</w>": 10093,
      "东西</w>": 10094,
      "ental</w>": 10095,
      "land</w>": 10096,
      "let</w>": 10097,
      "aff": 10098,
      "朋友</w>": 10099,
      "方案</w>": 10100,
      "line</w>": 10101,
      "企业</w>": 10102,
      "operation</w>": 10103,
      "att": 10104,
      "帮助</w>": 10105,
      "grow": 10106,
      "然后</w>": 10107,
      "fore": 10108,
      "exc": 10109,
      "money</w>": 10110,
      "home</w>": 10111,
      "一起</w>": 10112,
      "建议</w>": 10113,
      "lin": 10114,
      "led</w>": 10115,
      "three</w>": 10116,
      "business</w>": 10117,
      "hop": 10118,
      "vers": 10119,
      "children</w>": 10120,
      "pi": 10121,
      "ished</w>": 10122,
      "times</w>": 10123,
      "sha": 10124,
      "market</w>": 10125,
      "high</w>": 10126,
      "不要</w>": 10127,
      "ature</w>": 10128,
      "every": 10129,
      "find</w>": 10130,
      "合作</w>": 10131,
      "nee": 10132,
      "away</w>": 10133,
      "lim": 10134,
      "最后</w>": 10135,
      "设计</w>": 10136,
      "human</w>": 10137,
      "过程</w>": 10138,
      "uni": 10139,
      "目前</w>": 10140,
      "ffici": 10141,
      "appe": 10142,
      "found</w>": 10143,
      "目的</w>": 10144,
      "istr": 10145,
      "again</w>": 10146,
      "能力</w>": 10147,
      "环境</w>": 10148,
      "ants</w>": 10149,
      "ough</w>": 10150,
      "Go": 10151,
      "这一</w>": 10152,
      "next</w>": 10153,
      "ws</w>": 10154,
      "ses</w>": 10155,
      "ease</w>": 10156,
      "appro": 10157,
      "requi": 10158,
      "things</w>": 10159,
      "At</w>": 10160,
      "view</w>": 10161,
      "really</w>": 10162,
      "ath</w>": 10163,
      "目标</w>": 10164,
      "dat": 10165,
      "只是</w>": 10166,
      "pic": 10167,
      "wa": 10168,
      "div": 10169,
      "around</w>": 10170,
      "States</w>": 10171,
      "不过</w>": 10172,
      "ide": 10173,
      "succ": 10174,
      "might</w>": 10175,
      "action</w>": 10176,
      "row</w>": 10177,
      "hol": 10178,
      "vely</w>": 10179,
      "My</w>": 10180,
      "speci": 10181,
      "exam": 10182,
      "ty": 10183,
      "存在</w>": 10184,
      "获得</w>": 10185,
      "pur": 10186,
      "Nations</w>": 10187,
      "处理</w>": 10188,
      "viron": 10189,
      "ns</w>": 10190,
      "cle": 10191,
      "polic": 10192,
      "mor": 10193,
      "学生</w>": 10194,
      "ected</w>": 10195,
      "出现</w>": 10196,
      "cil</w>": 10197,
      "vo": 10198,
      "few</w>": 10199,
      "cas": 10200,
      "主义</w>": 10201,
      "sim": 10202,
      "call": 10203,
      "uation</w>": 10204,
      "another</w>": 10205,
      "control</w>": 10206,
      "并且</w>": 10207,
      "ages</w>": 10208,
      "事情</w>": 10209,
      "ept</w>": 10210,
      "grou": 10211,
      "ital</w>": 10212,
      "过去</w>": 10213,
      "ements</w>": 10214,
      "的话</w>": 10215,
      "ey": 10216,
      "解决</w>": 10217,
      "resear": 10218,
      "一定</w>": 10219,
      "产品</w>": 10220,
      "cr": 10221,
      "lem</w>": 10222,
      "though</w>": 10223,
      "light</w>": 10224,
      "ently</w>": 10225,
      "rest": 10226,
      "实现</w>": 10227,
      "medi": 10228,
      "选择</w>": 10229,
      "public</w>": 10230,
      "根据</w>": 10231,
      "prin": 10232,
      "规定</w>": 10233,
      "during</w>": 10234,
      "ply</w>": 10235,
      "paper</w>": 10236,
      "best</w>": 10237,
      "ends</w>": 10238,
      "something</w>": 10239,
      "增加</w>": 10240,
      "fur": 10241,
      "政策</w>": 10242,
      "high": 10243,
      "cus": 10244,
      "建立</w>": 10245,
      "fied</w>": 10246,
      "says</w>": 10247,
      "support</w>": 10248,
      "这里</w>": 10249,
      "problem</w>": 10250,
      "alth</w>": 10251,
      "今天</w>": 10252,
      "law</w>": 10253,
      "ation": 10254,
      "poli": 10255,
      "dep": 10256,
      "Council</w>": 10257,
      "often</w>": 10258,
      "ening</w>": 10259,
      "become</w>": 10260,
      "vari": 10261,
      "ack": 10262,
      "thers</w>": 10263,
      "auth": 10264,
      "Af": 10265,
      "whe": 10266,
      "turn</w>": 10267,
      "产生</w>": 10268,
      "执行</w>": 10269,
      "Ex": 10270,
      "doc": 10271,
      "控制</w>": 10272,
      "head</w>": 10273,
      "les</w>": 10274,
      "ize</w>": 10275,
      "sci": 10276,
      "信息</w>": 10277,
      "women</w>": 10278,
      "power</w>": 10279,
      "establ": 10280,
      "effor": 10281,
      "days</w>": 10282,
      "ards</w>": 10283,
      "行为</w>": 10284,
      "ire</w>": 10285,
      "impl": 10286,
      "ious</w>": 10287,
      "ancial</w>": 10288,
      "study</w>": 10289,
      "觉得</w>": 10290,
      "措施</w>": 10291,
      "Li": 10292,
      "ss</w>": 10293,
      "His</w>": 10294,
      "environ": 10295,
      "ulation</w>": 10296,
      "ward</w>": 10297,
      "ban": 10298,
      "lead": 10299,
      "一切</w>": 10300,
      "room</w>": 10301,
      "person</w>": 10302,
      "All</w>": 10303,
      "提高</w>": 10304,
      "came</w>": 10305,
      "一下</w>": 10306,
      "ult</w>": 10307,
      "教育</w>": 10308,
      "men</w>": 10309,
      "接受</w>": 10310,
      "uro": 10311,
      "follow": 10312,
      "保护</w>": 10313,
      "indu": 10314,
      "来说</w>": 10315,
      "resol": 10316,
      "Sh": 10317,
      "see": 10318,
      "之后</w>": 10319,
      "考虑</w>": 10320,
      "condi": 10321,
      "ail": 10322,
      "银行</w>": 10323,
      "感到</w>": 10324,
      "main": 10325,
      "method</w>": 10326,
      "possible</w>": 10327,
[...]
